{
  "version": "1.0",
  "truncation": null,
  "padding": null,
  "added_tokens": [
    {
      "id": 0,
      "content": "[UNK]",
      "single_word": false,
      "lstrip": false,
      "rstrip": false,
      "normalized": false,
      "special": true
    },
    {
      "id": 1,
      "content": "[CLS]",
      "single_word": false,
      "lstrip": false,
      "rstrip": false,
      "normalized": false,
      "special": true
    },
    {
      "id": 2,
      "content": "[SEP]",
      "single_word": false,
      "lstrip": false,
      "rstrip": false,
      "normalized": false,
      "special": true
    },
    {
      "id": 3,
      "content": "[PAD]",
      "single_word": false,
      "lstrip": false,
      "rstrip": false,
      "normalized": false,
      "special": true
    },
    {
      "id": 4,
      "content": "[MASK]",
      "single_word": false,
      "lstrip": false,
      "rstrip": false,
      "normalized": false,
      "special": true
    }
  ],
  "normalizer": null,
  "pre_tokenizer": {
    "type": "Whitespace"
  },
  "post_processor": null,
  "decoder": null,
  "model": {
    "type": "BPE",
    "dropout": null,
    "unk_token": "[UNK]",
    "continuing_subword_prefix": null,
    "end_of_word_suffix": null,
    "fuse_unk": false,
    "byte_fallback": false,
    "ignore_merges": false,
    "vocab": {
      "[UNK]": 0,
      "[CLS]": 1,
      "[SEP]": 2,
      "[PAD]": 3,
      "[MASK]": 4,
      "\u0000": 5,
      "\u0001": 6,
      "\u0002": 7,
      "\u0003": 8,
      "\u0004": 9,
      "\u0005": 10,
      "\u0006": 11,
      "\u0007": 12,
      "\b": 13,
      "\u000e": 14,
      "\u000f": 15,
      "\u0010": 16,
      "\u0012": 17,
      "\u0013": 18,
      "\u0014": 19,
      "\u0015": 20,
      "\u0016": 21,
      "\u0018": 22,
      "\u0019": 23,
      "\u001a": 24,
      "\u001c": 25,
      "\u001e": 26,
      "\u001f": 27,
      "!": 28,
      "\"": 29,
      "#": 30,
      "$": 31,
      "%": 32,
      "&": 33,
      "'": 34,
      "(": 35,
      ")": 36,
      "*": 37,
      "+": 38,
      ",": 39,
      "-": 40,
      ".": 41,
      "/": 42,
      "0": 43,
      "1": 44,
      "2": 45,
      "3": 46,
      "4": 47,
      "5": 48,
      "6": 49,
      "7": 50,
      "8": 51,
      "9": 52,
      ":": 53,
      ";": 54,
      "<": 55,
      "=": 56,
      ">": 57,
      "?": 58,
      "@": 59,
      "A": 60,
      "B": 61,
      "C": 62,
      "D": 63,
      "E": 64,
      "F": 65,
      "G": 66,
      "H": 67,
      "I": 68,
      "J": 69,
      "K": 70,
      "L": 71,
      "M": 72,
      "N": 73,
      "O": 74,
      "P": 75,
      "Q": 76,
      "R": 77,
      "S": 78,
      "T": 79,
      "U": 80,
      "V": 81,
      "W": 82,
      "X": 83,
      "Y": 84,
      "Z": 85,
      "[": 86,
      "\\": 87,
      "]": 88,
      "^": 89,
      "_": 90,
      "`": 91,
      "a": 92,
      "b": 93,
      "c": 94,
      "d": 95,
      "e": 96,
      "f": 97,
      "g": 98,
      "h": 99,
      "i": 100,
      "j": 101,
      "k": 102,
      "l": 103,
      "m": 104,
      "n": 105,
      "o": 106,
      "p": 107,
      "q": 108,
      "r": 109,
      "s": 110,
      "t": 111,
      "u": 112,
      "v": 113,
      "w": 114,
      "x": 115,
      "y": 116,
      "z": 117,
      "{": 118,
      "|": 119,
      "}": 120,
      "~": 121,
      "": 122,
      "": 123,
      "": 124,
      "": 125,
      "": 126,
      "": 127,
      "": 128,
      "": 129,
      "": 130,
      "": 131,
      "": 132,
      "": 133,
      "": 134,
      "": 135,
      "": 136,
      "": 137,
      "": 138,
      "": 139,
      "": 140,
      "": 141,
      "": 142,
      "": 143,
      "": 144,
      "": 145,
      "": 146,
      "": 147,
      "": 148,
      "": 149,
      "": 150,
      "": 151,
      "": 152,
      "": 153,
      "¡": 154,
      "¢": 155,
      "£": 156,
      "¤": 157,
      "¥": 158,
      "¦": 159,
      "§": 160,
      "¨": 161,
      "©": 162,
      "ª": 163,
      "«": 164,
      "¬": 165,
      "­": 166,
      "®": 167,
      "¯": 168,
      "°": 169,
      "±": 170,
      "²": 171,
      "³": 172,
      "´": 173,
      "µ": 174,
      "¶": 175,
      "·": 176,
      "¸": 177,
      "¹": 178,
      "º": 179,
      "»": 180,
      "¼": 181,
      "½": 182,
      "¾": 183,
      "¿": 184,
      "À": 185,
      "Á": 186,
      "Â": 187,
      "Ã": 188,
      "Ä": 189,
      "Å": 190,
      "Æ": 191,
      "Ç": 192,
      "È": 193,
      "É": 194,
      "Ê": 195,
      "Ë": 196,
      "Ì": 197,
      "Í": 198,
      "Î": 199,
      "Ï": 200,
      "Ð": 201,
      "Ñ": 202,
      "Ò": 203,
      "Ó": 204,
      "Ô": 205,
      "Õ": 206,
      "Ö": 207,
      "×": 208,
      "Ø": 209,
      "Ù": 210,
      "Ú": 211,
      "Û": 212,
      "Ü": 213,
      "Ý": 214,
      "Þ": 215,
      "ß": 216,
      "à": 217,
      "á": 218,
      "â": 219,
      "ã": 220,
      "ä": 221,
      "å": 222,
      "æ": 223,
      "ç": 224,
      "è": 225,
      "é": 226,
      "ê": 227,
      "ë": 228,
      "ì": 229,
      "í": 230,
      "î": 231,
      "ï": 232,
      "ð": 233,
      "ñ": 234,
      "ò": 235,
      "ó": 236,
      "ô": 237,
      "õ": 238,
      "ö": 239,
      "÷": 240,
      "ø": 241,
      "ù": 242,
      "ú": 243,
      "û": 244,
      "ü": 245,
      "ý": 246,
      "þ": 247,
      "ÿ": 248,
      "Ā": 249,
      "ā": 250,
      "Ă": 251,
      "ă": 252,
      "Ą": 253,
      "ą": 254,
      "Ć": 255,
      "ć": 256,
      "Ĉ": 257,
      "ċ": 258,
      "Č": 259,
      "č": 260,
      "Ď": 261,
      "ď": 262,
      "Đ": 263,
      "đ": 264,
      "Ē": 265,
      "ē": 266,
      "Ĕ": 267,
      "ĕ": 268,
      "Ė": 269,
      "ė": 270,
      "Ę": 271,
      "ę": 272,
      "ě": 273,
      "Ğ": 274,
      "ğ": 275,
      "Ġ": 276,
      "Ģ": 277,
      "ģ": 278,
      "Ĥ": 279,
      "ĥ": 280,
      "ħ": 281,
      "ĩ": 282,
      "Ī": 283,
      "ī": 284,
      "Ĭ": 285,
      "ĭ": 286,
      "Į": 287,
      "į": 288,
      "İ": 289,
      "ı": 290,
      "Ĳ": 291,
      "ĳ": 292,
      "Ĵ": 293,
      "ĵ": 294,
      "Ķ": 295,
      "ķ": 296,
      "ĸ": 297,
      "Ĺ": 298,
      "ĺ": 299,
      "Ļ": 300,
      "ļ": 301,
      "Ľ": 302,
      "ľ": 303,
      "Ŀ": 304,
      "Ł": 305,
      "ł": 306,
      "Ń": 307,
      "ń": 308,
      "ņ": 309,
      "ň": 310,
      "ŋ": 311,
      "Ō": 312,
      "ō": 313,
      "Ŏ": 314,
      "ŏ": 315,
      "Ő": 316,
      "ő": 317,
      "Œ": 318,
      "œ": 319,
      "ŕ": 320,
      "Ŗ": 321,
      "ŗ": 322,
      "Ř": 323,
      "ř": 324,
      "Ś": 325,
      "ś": 326,
      "Ŝ": 327,
      "ŝ": 328,
      "Ş": 329,
      "ş": 330,
      "Š": 331,
      "š": 332,
      "Ţ": 333,
      "ţ": 334,
      "ť": 335,
      "Ũ": 336,
      "ũ": 337,
      "Ū": 338,
      "ū": 339,
      "Ŭ": 340,
      "ŭ": 341,
      "ů": 342,
      "Ű": 343,
      "ű": 344,
      "Ų": 345,
      "ų": 346,
      "ŵ": 347,
      "ŷ": 348,
      "Ÿ": 349,
      "Ź": 350,
      "ź": 351,
      "Ż": 352,
      "ż": 353,
      "Ž": 354,
      "ž": 355,
      "ſ": 356,
      "ƒ": 357,
      "ơ": 358,
      "ƫ": 359,
      "Ƭ": 360,
      "Ư": 361,
      "ư": 362,
      "Ʊ": 363,
      "ǉ": 364,
      "ǎ": 365,
      "ǐ": 366,
      "Ǒ": 367,
      "ǒ": 368,
      "ǔ": 369,
      "ǖ": 370,
      "ǘ": 371,
      "ǚ": 372,
      "ǜ": 373,
      "Ǣ": 374,
      "ǧ": 375,
      "ǩ": 376,
      "ǫ": 377,
      "ǰ": 378,
      "Ǳ": 379,
      "ǲ": 380,
      "ǳ": 381,
      "Ǹ": 382,
      "ǹ": 383,
      "ǻ": 384,
      "Ǿ": 385,
      "ǿ": 386,
      "Ș": 387,
      "ș": 388,
      "Ț": 389,
      "ț": 390,
      "ȥ": 391,
      "ȩ": 392,
      "ȱ": 393,
      "Ȳ": 394,
      "ȳ": 395,
      "ȷ": 396,
      "ȹ": 397,
      "Ȼ": 398,
      "ȼ": 399,
      "ɐ": 400,
      "ɑ": 401,
      "ɒ": 402,
      "ɔ": 403,
      "ɕ": 404,
      "ɖ": 405,
      "ə": 406,
      "ɛ": 407,
      "ɡ": 408,
      "ɢ": 409,
      "ɣ": 410,
      "ɨ": 411,
      "ɪ": 412,
      "ɫ": 413,
      "ɴ": 414,
      "ɵ": 415,
      "ɶ": 416,
      "ɹ": 417,
      "ɻ": 418,
      "ɾ": 419,
      "ʂ": 420,
      "ʃ": 421,
      "ʊ": 422,
      "ʏ": 423,
      "ʒ": 424,
      "ʖ": 425,
      "ʡ": 426,
      "ʤ": 427,
      "ʧ": 428,
      "ʰ": 429,
      "ʱ": 430,
      "ʲ": 431,
      "ʳ": 432,
      "ʵ": 433,
      "ʶ": 434,
      "ʷ": 435,
      "ʹ": 436,
      "ʻ": 437,
      "ʼ": 438,
      "ʽ": 439,
      "ʾ": 440,
      "ˆ": 441,
      "ˇ": 442,
      "ˈ": 443,
      "ˉ": 444,
      "ˊ": 445,
      "ˍ": 446,
      "ˎ": 447,
      "ː": 448,
      "˗": 449,
      "˘": 450,
      "˙": 451,
      "˚": 452,
      "˛": 453,
      "˜": 454,
      "˝": 455,
      "ˡ": 456,
      "ˢ": 457,
      "ˣ": 458,
      "˥": 459,
      "˦": 460,
      "˧": 461,
      "˨": 462,
      "˩": 463,
      "˫": 464,
      "ˮ": 465,
      "˴": 466,
      "˵": 467,
      "˶": 468,
      "˷": 469,
      "̀": 470,
      "́": 471,
      "̂": 472,
      "̃": 473,
      "̄": 474,
      "̅": 475,
      "̆": 476,
      "̇": 477,
      "̈": 478,
      "̊": 479,
      "̌": 480,
      "̍": 481,
      "̕": 482,
      "̚": 483,
      "̞": 484,
      "̠": 485,
      "̣": 486,
      "̤": 487,
      "̥": 488,
      "̧": 489,
      "̫": 490,
      "̯": 491,
      "̱": 492,
      "̸": 493,
      "͐": 494,
      "͑": 495,
      "͒": 496,
      "͘": 497,
      "͜": 498,
      "͡": 499,
      "ͣ": 500,
      "ͨ": 501,
      "ͬ": 502,
      "ͱ": 503,
      "ͳ": 504,
      "ͷ": 505,
      "͹": 506,
      "ͼ": 507,
      ";": 508,
      "΄": 509,
      "Ά": 510,
      "·": 511,
      "Έ": 512,
      "Ό": 513,
      "ΐ": 514,
      "Α": 515,
      "Β": 516,
      "Γ": 517,
      "Δ": 518,
      "Ε": 519,
      "Ζ": 520,
      "Η": 521,
      "Θ": 522,
      "Ι": 523,
      "Κ": 524,
      "Λ": 525,
      "Μ": 526,
      "Ν": 527,
      "Ξ": 528,
      "Ο": 529,
      "Π": 530,
      "Ρ": 531,
      "΢": 532,
      "Σ": 533,
      "Τ": 534,
      "Υ": 535,
      "Φ": 536,
      "Χ": 537,
      "Ψ": 538,
      "Ω": 539,
      "Ϊ": 540,
      "ά": 541,
      "έ": 542,
      "ή": 543,
      "ί": 544,
      "α": 545,
      "β": 546,
      "γ": 547,
      "δ": 548,
      "ε": 549,
      "ζ": 550,
      "η": 551,
      "θ": 552,
      "ι": 553,
      "κ": 554,
      "λ": 555,
      "μ": 556,
      "ν": 557,
      "ξ": 558,
      "ο": 559,
      "π": 560,
      "ρ": 561,
      "ς": 562,
      "σ": 563,
      "τ": 564,
      "υ": 565,
      "φ": 566,
      "χ": 567,
      "ψ": 568,
      "ω": 569,
      "ϊ": 570,
      "ό": 571,
      "ύ": 572,
      "ώ": 573,
      "ϑ": 574,
      "ϒ": 575,
      "ϕ": 576,
      "ϖ": 577,
      "Ϣ": 578,
      "ϣ": 579,
      "ϰ": 580,
      "ϱ": 581,
      "ϵ": 582,
      "϶": 583,
      "ϻ": 584,
      "Ё": 585,
      "Ђ": 586,
      "Ѓ": 587,
      "Є": 588,
      "Ѕ": 589,
      "І": 590,
      "Ї": 591,
      "Ј": 592,
      "Љ": 593,
      "Њ": 594,
      "Ћ": 595,
      "Ќ": 596,
      "Ў": 597,
      "Џ": 598,
      "А": 599,
      "Б": 600,
      "В": 601,
      "Г": 602,
      "Д": 603,
      "Е": 604,
      "Ж": 605,
      "З": 606,
      "И": 607,
      "Й": 608,
      "К": 609,
      "Л": 610,
      "М": 611,
      "Н": 612,
      "О": 613,
      "П": 614,
      "Р": 615,
      "С": 616,
      "Т": 617,
      "У": 618,
      "Ф": 619,
      "Х": 620,
      "Ц": 621,
      "Ч": 622,
      "Ш": 623,
      "Щ": 624,
      "Ъ": 625,
      "Ы": 626,
      "Ь": 627,
      "Э": 628,
      "Ю": 629,
      "Я": 630,
      "а": 631,
      "б": 632,
      "в": 633,
      "г": 634,
      "д": 635,
      "е": 636,
      "ж": 637,
      "з": 638,
      "и": 639,
      "й": 640,
      "к": 641,
      "л": 642,
      "м": 643,
      "н": 644,
      "о": 645,
      "п": 646,
      "р": 647,
      "с": 648,
      "т": 649,
      "у": 650,
      "ф": 651,
      "х": 652,
      "ц": 653,
      "ч": 654,
      "ш": 655,
      "щ": 656,
      "ъ": 657,
      "ы": 658,
      "ь": 659,
      "э": 660,
      "ю": 661,
      "я": 662,
      "ё": 663,
      "ђ": 664,
      "ѓ": 665,
      "є": 666,
      "ѕ": 667,
      "і": 668,
      "ї": 669,
      "ј": 670,
      "љ": 671,
      "њ": 672,
      "ћ": 673,
      "ќ": 674,
      "ў": 675,
      "џ": 676,
      "ѡ": 677,
      "ѧ": 678,
      "Ѿ": 679,
      "҃": 680,
      "Ґ": 681,
      "ґ": 682,
      "ғ": 683,
      "ҕ": 684,
      "җ": 685,
      "ҙ": 686,
      "қ": 687,
      "ҡ": 688,
      "ң": 689,
      "ҥ": 690,
      "Ҫ": 691,
      "ҫ": 692,
      "ү": 693,
      "ұ": 694,
      "Ҳ": 695,
      "ҳ": 696,
      "һ": 697,
      "ӈ": 698,
      "ә": 699,
      "ӡ": 700,
      "Ӧ": 701,
      "ө": 702,
      "ӳ": 703,
      "Ӵ": 704,
      "ӵ": 705,
      "Ӻ": 706,
      "ӿ": 707,
      "Ԑ": 708,
      "Ԡ": 709,
      "ԭ": 710,
      "Ա": 711,
      "Բ": 712,
      "Ե": 713,
      "Զ": 714,
      "Լ": 715,
      "Խ": 716,
      "ժ": 717,
      "հ": 718,
      "ռ": 719,
      "ւ": 720,
      "֡": 721,
      "֤": 722,
      "֪": 723,
      "֮": 724,
      "ְ": 725,
      "ֱ": 726,
      "ֲ": 727,
      "ֵ": 728,
      "ֶ": 729,
      "ַ": 730,
      "ָ": 731,
      "ֹ": 732,
      "ֻ": 733,
      "ֽ": 734,
      "־": 735,
      "ֿ": 736,
      "א": 737,
      "ב": 738,
      "ג": 739,
      "ד": 740,
      "ה": 741,
      "ו": 742,
      "ז": 743,
      "ח": 744,
      "ט": 745,
      "י": 746,
      "ך": 747,
      "כ": 748,
      "ל": 749,
      "ם": 750,
      "מ": 751,
      "ן": 752,
      "נ": 753,
      "ס": 754,
      "ע": 755,
      "ף": 756,
      "פ": 757,
      "ץ": 758,
      "צ": 759,
      "ק": 760,
      "ר": 761,
      "ש": 762,
      "ת": 763,
      "ײ": 764,
      "״": 765,
      "׵": 766,
      "׺": 767,
      "׼": 768,
      "،": 769,
      "؛": 770,
      "؟": 771,
      "ء": 772,
      "آ": 773,
      "أ": 774,
      "ؤ": 775,
      "إ": 776,
      "ئ": 777,
      "ا": 778,
      "ب": 779,
      "ة": 780,
      "ت": 781,
      "ث": 782,
      "ج": 783,
      "ح": 784,
      "خ": 785,
      "د": 786,
      "ذ": 787,
      "ر": 788,
      "ز": 789,
      "س": 790,
      "ش": 791,
      "ص": 792,
      "ض": 793,
      "ط": 794,
      "ظ": 795,
      "ع": 796,
      "غ": 797,
      "ؼ": 798,
      "ـ": 799,
      "ف": 800,
      "ق": 801,
      "ك": 802,
      "ل": 803,
      "م": 804,
      "ن": 805,
      "ه": 806,
      "و": 807,
      "ى": 808,
      "ي": 809,
      "ً": 810,
      "ٌ": 811,
      "ٍ": 812,
      "َ": 813,
      "ُ": 814,
      "ِ": 815,
      "ّ": 816,
      "ْ": 817,
      "ٔ": 818,
      "ٕ": 819,
      "٠": 820,
      "١": 821,
      "٢": 822,
      "٥": 823,
      "٦": 824,
      "٧": 825,
      "٩": 826,
      "ٹ": 827,
      "پ": 828,
      "چ": 829,
      "ڈ": 830,
      "ڨ": 831,
      "ک": 832,
      "گ": 833,
      "ڴ": 834,
      "ڵ": 835,
      "ں": 836,
      "ھ": 837,
      "ہ": 838,
      "ی": 839,
      "ے": 840,
      "ە": 841,
      "۱": 842,
      "۳": 843,
      "ܹ": 844,
      "ݣ": 845,
      "ݱ": 846,
      "ݷ": 847,
      "ݸ": 848,
      "޸": 849,
      "߲": 850,
      "ߵ": 851,
      "߸": 852,
      "߹": 853,
      "߼": 854,
      "࣬": 855,
      "ँ": 856,
      "ं": 857,
      "अ": 858,
      "आ": 859,
      "इ": 860,
      "ई": 861,
      "उ": 862,
      "ऊ": 863,
      "ए": 864,
      "औ": 865,
      "क": 866,
      "ख": 867,
      "ग": 868,
      "च": 869,
      "छ": 870,
      "ज": 871,
      "झ": 872,
      "ट": 873,
      "ठ": 874,
      "ड": 875,
      "ढ": 876,
      "ण": 877,
      "त": 878,
      "थ": 879,
      "द": 880,
      "ध": 881,
      "न": 882,
      "ऩ": 883,
      "प": 884,
      "फ": 885,
      "ब": 886,
      "भ": 887,
      "म": 888,
      "य": 889,
      "र": 890,
      "ल": 891,
      "ळ": 892,
      "व": 893,
      "श": 894,
      "ष": 895,
      "स": 896,
      "ह": 897,
      "़": 898,
      "ा": 899,
      "ि": 900,
      "ी": 901,
      "ु": 902,
      "ू": 903,
      "ृ": 904,
      "े": 905,
      "ै": 906,
      "ॉ": 907,
      "ो": 908,
      "ौ": 909,
      "्": 910,
      "।": 911,
      "१": 912,
      "७": 913,
      "ঁ": 914,
      "ং": 915,
      "অ": 916,
      "আ": 917,
      "ই": 918,
      "উ": 919,
      "এ": 920,
      "ঐ": 921,
      "ও": 922,
      "ক": 923,
      "খ": 924,
      "গ": 925,
      "ঘ": 926,
      "ঙ": 927,
      "চ": 928,
      "ছ": 929,
      "জ": 930,
      "ঞ": 931,
      "ট": 932,
      "ঠ": 933,
      "ড": 934,
      "ঢ": 935,
      "ণ": 936,
      "ত": 937,
      "থ": 938,
      "দ": 939,
      "ধ": 940,
      "ন": 941,
      "প": 942,
      "ফ": 943,
      "ব": 944,
      "ভ": 945,
      "ম": 946,
      "য": 947,
      "র": 948,
      "ল": 949,
      "শ": 950,
      "ষ": 951,
      "স": 952,
      "হ": 953,
      "়": 954,
      "া": 955,
      "ি": 956,
      "ী": 957,
      "ু": 958,
      "ূ": 959,
      "ৃ": 960,
      "ে": 961,
      "ৈ": 962,
      "ো": 963,
      "্": 964,
      "ৎ": 965,
      "ড়": 966,
      "য়": 967,
      "০": 968,
      "১": 969,
      "২": 970,
      "৩": 971,
      "ୣ": 972,
      "அ": 973,
      "இ": 974,
      "உ": 975,
      "க": 976,
      "ங": 977,
      "ட": 978,
      "ண": 979,
      "த": 980,
      "ந": 981,
      "ன": 982,
      "ப": 983,
      "ம": 984,
      "ய": 985,
      "ர": 986,
      "ற": 987,
      "ல": 988,
      "ள": 989,
      "ழ": 990,
      "வ": 991,
      "ஸ": 992,
      "ஹ": 993,
      "ா": 994,
      "ி": 995,
      "ு": 996,
      "ூ": 997,
      "ெ": 998,
      "ே": 999,
      "ை": 1000,
      "ொ": 1001,
      "ோ": 1002,
      "்": 1003,
      "ం": 1004,
      "అ": 1005,
      "ఉ": 1006,
      "ఏ": 1007,
      "క": 1008,
      "గ": 1009,
      "చ": 1010,
      "జ": 1011,
      "ట": 1012,
      "డ": 1013,
      "త": 1014,
      "ద": 1015,
      "ధ": 1016,
      "న": 1017,
      "ప": 1018,
      "భ": 1019,
      "య": 1020,
      "ర": 1021,
      "ల": 1022,
      "వ": 1023,
      "స": 1024,
      "హ": 1025,
      "ా": 1026,
      "ి": 1027,
      "ు": 1028,
      "ె": 1029,
      "ే": 1030,
      "ో": 1031,
      "్": 1032,
      "അ": 1033,
      "ആ": 1034,
      "ഏ": 1035,
      "ക": 1036,
      "ങ": 1037,
      "ച": 1038,
      "ജ": 1039,
      "ട": 1040,
      "ണ": 1041,
      "ത": 1042,
      "ദ": 1043,
      "ധ": 1044,
      "ന": 1045,
      "പ": 1046,
      "ബ": 1047,
      "മ": 1048,
      "യ": 1049,
      "റ": 1050,
      "ള": 1051,
      "ാ": 1052,
      "ി": 1053,
      "ു": 1054,
      "ൂ": 1055,
      "െ": 1056,
      "േ": 1057,
      "ൌ": 1058,
      "്": 1059,
      "ൻ": 1060,
      "ก": 1061,
      "ข": 1062,
      "ฃ": 1063,
      "ค": 1064,
      "ฅ": 1065,
      "ง": 1066,
      "จ": 1067,
      "ฉ": 1068,
      "ซ": 1069,
      "ญ": 1070,
      "ณ": 1071,
      "ด": 1072,
      "ถ": 1073,
      "ท": 1074,
      "น": 1075,
      "บ": 1076,
      "ป": 1077,
      "ผ": 1078,
      "ฝ": 1079,
      "พ": 1080,
      "ม": 1081,
      "ย": 1082,
      "ร": 1083,
      "ล": 1084,
      "ศ": 1085,
      "ษ": 1086,
      "ส": 1087,
      "ห": 1088,
      "อ": 1089,
      "ฮ": 1090,
      "ะ": 1091,
      "ั": 1092,
      "า": 1093,
      "ำ": 1094,
      "ิ": 1095,
      "ี": 1096,
      "ึ": 1097,
      "ุ": 1098,
      "ฺ": 1099,
      "เ": 1100,
      "แ": 1101,
      "ใ": 1102,
      "็": 1103,
      "่": 1104,
      "้": 1105,
      "ํ": 1106,
      "๑": 1107,
      "໻": 1108,
      "་": 1109,
      "།": 1110,
      "ཁ": 1111,
      "ག": 1112,
      "ང": 1113,
      "ཅ": 1114,
      "ཆ": 1115,
      "ད": 1116,
      "ན": 1117,
      "པ": 1118,
      "བ": 1119,
      "མ": 1120,
      "ཞ": 1121,
      "འ": 1122,
      "ཡ": 1123,
      "ར": 1124,
      "ལ": 1125,
      "ས": 1126,
      "ི": 1127,
      "ུ": 1128,
      "ེ": 1129,
      "ོ": 1130,
      "ྐ": 1131,
      "ྒ": 1132,
      "ྨ": 1133,
      "ྩ": 1134,
      "ྱ": 1135,
      "ྲ": 1136,
      "ླ": 1137,
      "࿯": 1138,
      "ሃ": 1139,
      "ህ": 1140,
      "ለ": 1141,
      "ም": 1142,
      "ሪ": 1143,
      "ራ": 1144,
      "ር": 1145,
      "ሮ": 1146,
      "ስ": 1147,
      "ቀ": 1148,
      "ባ": 1149,
      "ታ": 1150,
      "ት": 1151,
      "ነ": 1152,
      "ን": 1153,
      "አ": 1154,
      "ኣ": 1155,
      "እ": 1156,
      "ካ": 1157,
      "ው": 1158,
      "ዎ": 1159,
      "ዓ": 1160,
      "ዘ": 1161,
      "የ": 1162,
      "ዩ": 1163,
      "ያ": 1164,
      "ይ": 1165,
      "ገ": 1166,
      "ጥ": 1167,
      "ፍ": 1168,
      "ፓ": 1169,
      "።": 1170,
      "ᐟ": 1171,
      "ᐠ": 1172,
      "ឆ": 1173,
      "ា": 1174,
      "ᴀ": 1175,
      "ᴮ": 1176,
      "ᴱ": 1177,
      "ᴳ": 1178,
      "ᴴ": 1179,
      "ᴹ": 1180,
      "ᴼ": 1181,
      "ᴾ": 1182,
      "ᴿ": 1183,
      "ᵀ": 1184,
      "ᵃ": 1185,
      "ᵈ": 1186,
      "ᵉ": 1187,
      "ᵍ": 1188,
      "ᵐ": 1189,
      "ᵒ": 1190,
      "ᵖ": 1191,
      "ᵢ": 1192,
      "ᵣ": 1193,
      "ᵦ": 1194,
      "ḃ": 1195,
      "ḅ": 1196,
      "ḍ": 1197,
      "ḏ": 1198,
      "ḡ": 1199,
      "ḥ": 1200,
      "ḱ": 1201,
      "ḿ": 1202,
      "Ṁ": 1203,
      "ṁ": 1204,
      "ṃ": 1205,
      "ṅ": 1206,
      "ṇ": 1207,
      "ṕ": 1208,
      "Ṛ": 1209,
      "ṛ": 1210,
      "Ṣ": 1211,
      "ṣ": 1212,
      "ṩ": 1213,
      "ṭ": 1214,
      "ẞ": 1215,
      "Ạ": 1216,
      "ạ": 1217,
      "Ả": 1218,
      "ả": 1219,
      "ấ": 1220,
      "ầ": 1221,
      "ẩ": 1222,
      "ẫ": 1223,
      "ậ": 1224,
      "Ắ": 1225,
      "ắ": 1226,
      "ằ": 1227,
      "ẳ": 1228,
      "ẵ": 1229,
      "ặ": 1230,
      "Ẹ": 1231,
      "ẹ": 1232,
      "ẻ": 1233,
      "ẽ": 1234,
      "Ế": 1235,
      "ế": 1236,
      "ề": 1237,
      "Ể": 1238,
      "ể": 1239,
      "ễ": 1240,
      "Ệ": 1241,
      "ệ": 1242,
      "ỉ": 1243,
      "ị": 1244,
      "ọ": 1245,
      "ỏ": 1246,
      "Ố": 1247,
      "ố": 1248,
      "ồ": 1249,
      "ổ": 1250,
      "ỗ": 1251,
      "ộ": 1252,
      "ớ": 1253,
      "ờ": 1254,
      "Ở": 1255,
      "ở": 1256,
      "ỡ": 1257,
      "ợ": 1258,
      "Ụ": 1259,
      "ụ": 1260,
      "ủ": 1261,
      "ứ": 1262,
      "ừ": 1263,
      "ử": 1264,
      "ữ": 1265,
      "Ự": 1266,
      "ự": 1267,
      "ỳ": 1268,
      "ỷ": 1269,
      "ỹ": 1270,
      "ἀ": 1271,
      "ἁ": 1272,
      "ἄ": 1273,
      "ἅ": 1274,
      "Ἀ": 1275,
      "ἐ": 1276,
      "ἑ": 1277,
      "ἓ": 1278,
      "ἔ": 1279,
      "ἕ": 1280,
      "Ἕ": 1281,
      "ἠ": 1282,
      "ἡ": 1283,
      "ἢ": 1284,
      "ἥ": 1285,
      "ἦ": 1286,
      "ἰ": 1287,
      "ἱ": 1288,
      "ἴ": 1289,
      "ἵ": 1290,
      "ἶ": 1291,
      "ἷ": 1292,
      "Ἰ": 1293,
      "Ἱ": 1294,
      "ὀ": 1295,
      "ὁ": 1296,
      "ὄ": 1297,
      "ὅ": 1298,
      "Ὀ": 1299,
      "ὐ": 1300,
      "ὑ": 1301,
      "ὔ": 1302,
      "ὕ": 1303,
      "ὖ": 1304,
      "ὗ": 1305,
      "ὠ": 1306,
      "ὡ": 1307,
      "ὣ": 1308,
      "ὦ": 1309,
      "Ὣ": 1310,
      "ὰ": 1311,
      "ὲ": 1312,
      "ὴ": 1313,
      "ὶ": 1314,
      "ὸ": 1315,
      "ό": 1316,
      "ὺ": 1317,
      "ὼ": 1318,
      "ᾧ": 1319,
      "ᾳ": 1320,
      "ᾶ": 1321,
      "ᾷ": 1322,
      "᾽": 1323,
      "ῃ": 1324,
      "ῆ": 1325,
      "ῇ": 1326,
      "ῖ": 1327,
      "ῥ": 1328,
      "ῦ": 1329,
      "Ῥ": 1330,
      "ῳ": 1331,
      "ῶ": 1332,
      "ῷ": 1333,
      "​": 1334,
      "‌": 1335,
      "‍": 1336,
      "‎": 1337,
      "‏": 1338,
      "‐": 1339,
      "‑": 1340,
      "‒": 1341,
      "–": 1342,
      "—": 1343,
      "―": 1344,
      "‖": 1345,
      "‘": 1346,
      "’": 1347,
      "‚": 1348,
      "“": 1349,
      "”": 1350,
      "„": 1351,
      "†": 1352,
      "‡": 1353,
      "•": 1354,
      "․": 1355,
      "…": 1356,
      "‧": 1357,
      "‪": 1358,
      "‫": 1359,
      "‬": 1360,
      "‰": 1361,
      "′": 1362,
      "″": 1363,
      "‵": 1364,
      "‹": 1365,
      "›": 1366,
      "※": 1367,
      "‼": 1368,
      "‾": 1369,
      "⁃": 1370,
      "⁄": 1371,
      "⁅": 1372,
      "⁆": 1373,
      "⁇": 1374,
      "⁎": 1375,
      "⁠": 1376,
      "⁡": 1377,
      "⁰": 1378,
      "ⁱ": 1379,
      "⁴": 1380,
      "⁵": 1381,
      "⁶": 1382,
      "⁷": 1383,
      "⁸": 1384,
      "⁺": 1385,
      "⁻": 1386,
      "⁽": 1387,
      "⁾": 1388,
      "ⁿ": 1389,
      "₀": 1390,
      "₁": 1391,
      "₂": 1392,
      "₃": 1393,
      "₄": 1394,
      "₅": 1395,
      "₆": 1396,
      "₇": 1397,
      "₈": 1398,
      "₉": 1399,
      "ₐ": 1400,
      "ₕ": 1401,
      "ₖ": 1402,
      "ₗ": 1403,
      "ₘ": 1404,
      "ₙ": 1405,
      "ₚ": 1406,
      "ₛ": 1407,
      "ₜ": 1408,
      "€": 1409,
      "⃝": 1410,
      "⃣": 1411,
      "ℂ": 1412,
      "℃": 1413,
      "℅": 1414,
      "ℍ": 1415,
      "ℎ": 1416,
      "ℏ": 1417,
      "ℓ": 1418,
      "ℕ": 1419,
      "№": 1420,
      "ℙ": 1421,
      "ℚ": 1422,
      "ℜ": 1423,
      "ℝ": 1424,
      "™": 1425,
      "ℤ": 1426,
      "Ω": 1427,
      "℧": 1428,
      "Å": 1429,
      "ℱ": 1430,
      "ℳ": 1431,
      "ℵ": 1432,
      "⅓": 1433,
      "⅔": 1434,
      "Ⅰ": 1435,
      "Ⅱ": 1436,
      "Ⅲ": 1437,
      "Ⅳ": 1438,
      "Ⅴ": 1439,
      "Ⅵ": 1440,
      "ⅰ": 1441,
      "ⅱ": 1442,
      "ⅲ": 1443,
      "ⅹ": 1444,
      "ↄ": 1445,
      "←": 1446,
      "↑": 1447,
      "→": 1448,
      "↓": 1449,
      "↔": 1450,
      "↗": 1451,
      "↝": 1452,
      "↠": 1453,
      "↦": 1454,
      "↪": 1455,
      "↵": 1456,
      "⇉": 1457,
      "⇐": 1458,
      "⇑": 1459,
      "⇒": 1460,
      "⇔": 1461,
      "⇝": 1462,
      "⇠": 1463,
      "⇤": 1464,
      "⇥": 1465,
      "⇨": 1466,
      "⇩": 1467,
      "⇸": 1468,
      "∀": 1469,
      "∂": 1470,
      "∃": 1471,
      "∄": 1472,
      "∅": 1473,
      "∆": 1474,
      "∇": 1475,
      "∈": 1476,
      "∉": 1477,
      "∊": 1478,
      "∋": 1479,
      "∌": 1480,
      "∎": 1481,
      "∏": 1482,
      "∑": 1483,
      "−": 1484,
      "∓": 1485,
      "∕": 1486,
      "∖": 1487,
      "∗": 1488,
      "∘": 1489,
      "∙": 1490,
      "√": 1491,
      "∝": 1492,
      "∞": 1493,
      "∣": 1494,
      "∥": 1495,
      "∧": 1496,
      "∨": 1497,
      "∩": 1498,
      "∪": 1499,
      "∫": 1500,
      "∵": 1501,
      "∶": 1502,
      "∷": 1503,
      "∸": 1504,
      "∼": 1505,
      "≃": 1506,
      "≅": 1507,
      "≈": 1508,
      "≔": 1509,
      "≝": 1510,
      "≟": 1511,
      "≠": 1512,
      "≡": 1513,
      "≢": 1514,
      "≤": 1515,
      "≥": 1516,
      "≦": 1517,
      "≧": 1518,
      "≪": 1519,
      "≫": 1520,
      "≲": 1521,
      "≳": 1522,
      "≺": 1523,
      "≼": 1524,
      "≽": 1525,
      "⊂": 1526,
      "⊃": 1527,
      "⊄": 1528,
      "⊅": 1529,
      "⊆": 1530,
      "⊇": 1531,
      "⊈": 1532,
      "⊉": 1533,
      "⊊": 1534,
      "⊎": 1535,
      "⊏": 1536,
      "⊓": 1537,
      "⊔": 1538,
      "⊕": 1539,
      "⊗": 1540,
      "⊘": 1541,
      "⊙": 1542,
      "⊞": 1543,
      "⊢": 1544,
      "⊤": 1545,
      "⊥": 1546,
      "⊨": 1547,
      "⊭": 1548,
      "⊸": 1549,
      "⊺": 1550,
      "⋀": 1551,
      "⋁": 1552,
      "⋂": 1553,
      "⋃": 1554,
      "⋅": 1555,
      "⋆": 1556,
      "⋙": 1557,
      "⋮": 1558,
      "⋯": 1559,
      "⋰": 1560,
      "⋱": 1561,
      "⌀": 1562,
      "⌈": 1563,
      "⌉": 1564,
      "⌊": 1565,
      "⌋": 1566,
      "⌘": 1567,
      "⌞": 1568,
      "⌟": 1569,
      "〈": 1570,
      "〉": 1571,
      "⎨": 1572,
      "⎬": 1573,
      "␗": 1574,
      "␚": 1575,
      "␝": 1576,
      "␟": 1577,
      "␣": 1578,
      "␥": 1579,
      "①": 1580,
      "②": 1581,
      "③": 1582,
      "④": 1583,
      "⑤": 1584,
      "⑥": 1585,
      "⑦": 1586,
      "⑧": 1587,
      "⑨": 1588,
      "⑩": 1589,
      "ⓐ": 1590,
      "ⓑ": 1591,
      "ⓒ": 1592,
      "─": 1593,
      "━": 1594,
      "│": 1595,
      "┃": 1596,
      "┌": 1597,
      "┏": 1598,
      "┐": 1599,
      "┓": 1600,
      "└": 1601,
      "┘": 1602,
      "├": 1603,
      "┡": 1604,
      "┣": 1605,
      "┤": 1606,
      "┩": 1607,
      "┫": 1608,
      "┬": 1609,
      "┳": 1610,
      "┴": 1611,
      "┻": 1612,
      "╇": 1613,
      "═": 1614,
      "╭": 1615,
      "╮": 1616,
      "╯": 1617,
      "╰": 1618,
      "▁": 1619,
      "█": 1620,
      "▒": 1621,
      "■": 1622,
      "□": 1623,
      "▪": 1624,
      "▲": 1625,
      "▵": 1626,
      "▷": 1627,
      "▸": 1628,
      "►": 1629,
      "▼": 1630,
      "▽": 1631,
      "▾": 1632,
      "◀": 1633,
      "◅": 1634,
      "◇": 1635,
      "◊": 1636,
      "○": 1637,
      "●": 1638,
      "◘": 1639,
      "◦": 1640,
      "◼": 1641,
      "★": 1642,
      "☆": 1643,
      "☉": 1644,
      "☐": 1645,
      "☑": 1646,
      "☞": 1647,
      "☡": 1648,
      "♀": 1649,
      "♠": 1650,
      "♡": 1651,
      "♢": 1652,
      "♥": 1653,
      "♦": 1654,
      "♪": 1655,
      "♯": 1656,
      "⚠": 1657,
      "⚡": 1658,
      "✅": 1659,
      "✉": 1660,
      "✌": 1661,
      "✏": 1662,
      "✓": 1663,
      "✔": 1664,
      "✕": 1665,
      "✖": 1666,
      "✗": 1667,
      "✘": 1668,
      "✪": 1669,
      "❌": 1670,
      "❏": 1671,
      "❑": 1672,
      "❹": 1673,
      "➡": 1674,
      "⟦": 1675,
      "⟧": 1676,
      "⟨": 1677,
      "⟩": 1678,
      "⟪": 1679,
      "⟫": 1680,
      "⟵": 1681,
      "⟶": 1682,
      "⟸": 1683,
      "⟹": 1684,
      "⟺": 1685,
      "⟼": 1686,
      "⣬": 1687,
      "⣺": 1688,
      "⤊": 1689,
      "⤋": 1690,
      "⤴": 1691,
      "⤵": 1692,
      "⥤": 1693,
      "⦃": 1694,
      "⦄": 1695,
      "⦷": 1696,
      "⧴": 1697,
      "⧷": 1698,
      "⨀": 1699,
      "⨅": 1700,
      "⨆": 1701,
      "⨉": 1702,
      "⨟": 1703,
      "⩴": 1704,
      "⩽": 1705,
      "⩾": 1706,
      "⪆": 1707,
      "⪯": 1708,
      "⬆": 1709,
      "⬇": 1710,
      "⬝": 1711,
      "⭕": 1712,
      "ⱼ": 1713,
      "ⲿ": 1714,
      "ⵈ": 1715,
      "⵽": 1716,
      "⻏": 1717,
      "⻖": 1718,
      "⻚": 1719,
      "⻛": 1720,
      "⼀": 1721,
      "⼈": 1722,
      "⼝": 1723,
      "⼤": 1724,
      "⼦": 1725,
      "⼩": 1726,
      "⼯": 1727,
      "⽂": 1728,
      "⽅": 1729,
      "⽚": 1730,
      "⽤": 1731,
      "⽰": 1732,
      "⽽": 1733,
      "⾊": 1734,
      "⾏": 1735,
      "⾢": 1736,
      "⾩": 1737,
      "⾯": 1738,
      "⾼": 1739,
      "、": 1740,
      "。": 1741,
      "〃": 1742,
      "々": 1743,
      "〇": 1744,
      "〈": 1745,
      "〉": 1746,
      "《": 1747,
      "》": 1748,
      "「": 1749,
      "」": 1750,
      "『": 1751,
      "』": 1752,
      "【": 1753,
      "】": 1754,
      "〒": 1755,
      "〖": 1756,
      "〗": 1757,
      "〘": 1758,
      "〙": 1759,
      "〜": 1760,
      "ぁ": 1761,
      "あ": 1762,
      "ぃ": 1763,
      "い": 1764,
      "う": 1765,
      "ぇ": 1766,
      "え": 1767,
      "ぉ": 1768,
      "お": 1769,
      "か": 1770,
      "が": 1771,
      "き": 1772,
      "ぎ": 1773,
      "く": 1774,
      "ぐ": 1775,
      "け": 1776,
      "げ": 1777,
      "こ": 1778,
      "ご": 1779,
      "さ": 1780,
      "ざ": 1781,
      "し": 1782,
      "じ": 1783,
      "す": 1784,
      "ず": 1785,
      "せ": 1786,
      "ぜ": 1787,
      "そ": 1788,
      "ぞ": 1789,
      "た": 1790,
      "だ": 1791,
      "ち": 1792,
      "っ": 1793,
      "つ": 1794,
      "づ": 1795,
      "て": 1796,
      "で": 1797,
      "と": 1798,
      "ど": 1799,
      "な": 1800,
      "に": 1801,
      "ぬ": 1802,
      "ね": 1803,
      "の": 1804,
      "は": 1805,
      "ば": 1806,
      "ぱ": 1807,
      "ひ": 1808,
      "び": 1809,
      "ふ": 1810,
      "ぶ": 1811,
      "ぷ": 1812,
      "へ": 1813,
      "べ": 1814,
      "ぺ": 1815,
      "ほ": 1816,
      "ぼ": 1817,
      "ぽ": 1818,
      "ま": 1819,
      "み": 1820,
      "む": 1821,
      "め": 1822,
      "も": 1823,
      "ゃ": 1824,
      "や": 1825,
      "ゆ": 1826,
      "ょ": 1827,
      "よ": 1828,
      "ら": 1829,
      "り": 1830,
      "る": 1831,
      "れ": 1832,
      "ろ": 1833,
      "わ": 1834,
      "を": 1835,
      "ん": 1836,
      "ァ": 1837,
      "ア": 1838,
      "ィ": 1839,
      "イ": 1840,
      "ゥ": 1841,
      "ウ": 1842,
      "ェ": 1843,
      "エ": 1844,
      "ォ": 1845,
      "オ": 1846,
      "カ": 1847,
      "ガ": 1848,
      "キ": 1849,
      "ギ": 1850,
      "ク": 1851,
      "グ": 1852,
      "ケ": 1853,
      "ゲ": 1854,
      "コ": 1855,
      "ゴ": 1856,
      "サ": 1857,
      "ザ": 1858,
      "シ": 1859,
      "ジ": 1860,
      "ス": 1861,
      "ズ": 1862,
      "セ": 1863,
      "ゼ": 1864,
      "ソ": 1865,
      "ゾ": 1866,
      "タ": 1867,
      "ダ": 1868,
      "チ": 1869,
      "ッ": 1870,
      "ツ": 1871,
      "テ": 1872,
      "デ": 1873,
      "ト": 1874,
      "ド": 1875,
      "ナ": 1876,
      "ニ": 1877,
      "ヌ": 1878,
      "ネ": 1879,
      "ノ": 1880,
      "ハ": 1881,
      "バ": 1882,
      "パ": 1883,
      "ヒ": 1884,
      "ビ": 1885,
      "ピ": 1886,
      "フ": 1887,
      "ブ": 1888,
      "プ": 1889,
      "ヘ": 1890,
      "ベ": 1891,
      "ペ": 1892,
      "ホ": 1893,
      "ボ": 1894,
      "ポ": 1895,
      "マ": 1896,
      "ミ": 1897,
      "ム": 1898,
      "メ": 1899,
      "モ": 1900,
      "ャ": 1901,
      "ヤ": 1902,
      "ュ": 1903,
      "ユ": 1904,
      "ョ": 1905,
      "ヨ": 1906,
      "ラ": 1907,
      "リ": 1908,
      "ル": 1909,
      "レ": 1910,
      "ロ": 1911,
      "ヮ": 1912,
      "ワ": 1913,
      "ン": 1914,
      "ヴ": 1915,
      "ヵ": 1916,
      "ヶ": 1917,
      "・": 1918,
      "ー": 1919,
      "ㄉ": 1920,
      "ㄌ": 1921,
      "ㄓ": 1922,
      "ㄚ": 1923,
      "ㄛ": 1924,
      "ㄧ": 1925,
      "ㄩ": 1926,
      "ㄱ": 1927,
      "ㄴ": 1928,
      "ㄷ": 1929,
      "ㄹ": 1930,
      "ㅁ": 1931,
      "ㅂ": 1932,
      "ㅅ": 1933,
      "ㅆ": 1934,
      "ㅇ": 1935,
      "ㅊ": 1936,
      "ㅋ": 1937,
      "ㅌ": 1938,
      "ㅍ": 1939,
      "ㅎ": 1940,
      "ㅏ": 1941,
      "ㅐ": 1942,
      "ㅓ": 1943,
      "ㅔ": 1944,
      "ㅜ": 1945,
      "ㅠ": 1946,
      "ㅡ": 1947,
      "ㅣ": 1948,
      "㈜": 1949,
      "㊙": 1950,
      "㊣": 1951,
      "㏒": 1952,
      "㷨": 1953,
      "一": 1954,
      "丁": 1955,
      "七": 1956,
      "万": 1957,
      "丈": 1958,
      "三": 1959,
      "上": 1960,
      "下": 1961,
      "不": 1962,
      "与": 1963,
      "丑": 1964,
      "专": 1965,
      "且": 1966,
      "丕": 1967,
      "世": 1968,
      "丘": 1969,
      "丙": 1970,
      "业": 1971,
      "丛": 1972,
      "东": 1973,
      "丝": 1974,
      "丟": 1975,
      "両": 1976,
      "丢": 1977,
      "两": 1978,
      "严": 1979,
      "並": 1980,
      "丧": 1981,
      "丨": 1982,
      "个": 1983,
      "中": 1984,
      "丰": 1985,
      "串": 1986,
      "临": 1987,
      "丶": 1988,
      "丸": 1989,
      "丹": 1990,
      "为": 1991,
      "主": 1992,
      "丼": 1993,
      "丽": 1994,
      "举": 1995,
      "乃": 1996,
      "久": 1997,
      "么": 1998,
      "义": 1999,
      "之": 2000,
      "乌": 2001,
      "乍": 2002,
      "乎": 2003,
      "乏": 2004,
      "乐": 2005,
      "乒": 2006,
      "乓": 2007,
      "乔": 2008,
      "乖": 2009,
      "乗": 2010,
      "乘": 2011,
      "乙": 2012,
      "乜": 2013,
      "九": 2014,
      "乞": 2015,
      "也": 2016,
      "习": 2017,
      "乡": 2018,
      "书": 2019,
      "乩": 2020,
      "买": 2021,
      "乱": 2022,
      "乳": 2023,
      "乾": 2024,
      "亀": 2025,
      "亂": 2026,
      "了": 2027,
      "予": 2028,
      "争": 2029,
      "事": 2030,
      "二": 2031,
      "于": 2032,
      "亏": 2033,
      "云": 2034,
      "互": 2035,
      "五": 2036,
      "井": 2037,
      "亘": 2038,
      "亚": 2039,
      "些": 2040,
      "亞": 2041,
      "亟": 2042,
      "亡": 2043,
      "交": 2044,
      "亥": 2045,
      "亦": 2046,
      "产": 2047,
      "亨": 2048,
      "亩": 2049,
      "享": 2050,
      "京": 2051,
      "亭": 2052,
      "亮": 2053,
      "亲": 2054,
      "人": 2055,
      "亿": 2056,
      "什": 2057,
      "仁": 2058,
      "仅": 2059,
      "仇": 2060,
      "今": 2061,
      "介": 2062,
      "仍": 2063,
      "从": 2064,
      "仏": 2065,
      "仑": 2066,
      "仓": 2067,
      "仔": 2068,
      "仕": 2069,
      "他": 2070,
      "付": 2071,
      "仙": 2072,
      "仝": 2073,
      "代": 2074,
      "令": 2075,
      "以": 2076,
      "仪": 2077,
      "们": 2078,
      "仮": 2079,
      "仰": 2080,
      "仲": 2081,
      "件": 2082,
      "价": 2083,
      "任": 2084,
      "份": 2085,
      "仿": 2086,
      "企": 2087,
      "伊": 2088,
      "伍": 2089,
      "伏": 2090,
      "伐": 2091,
      "休": 2092,
      "众": 2093,
      "优": 2094,
      "伙": 2095,
      "会": 2096,
      "伝": 2097,
      "伞": 2098,
      "伟": 2099,
      "传": 2100,
      "伤": 2101,
      "伦": 2102,
      "伪": 2103,
      "伯": 2104,
      "估": 2105,
      "伴": 2106,
      "伸": 2107,
      "伺": 2108,
      "似": 2109,
      "伽": 2110,
      "佁": 2111,
      "但": 2112,
      "佇": 2113,
      "位": 2114,
      "低": 2115,
      "住": 2116,
      "佐": 2117,
      "佑": 2118,
      "体": 2119,
      "何": 2120,
      "佗": 2121,
      "余": 2122,
      "佛": 2123,
      "作": 2124,
      "佟": 2125,
      "你": 2126,
      "佢": 2127,
      "佣": 2128,
      "佩": 2129,
      "佬": 2130,
      "佮": 2131,
      "佳": 2132,
      "併": 2133,
      "佸": 2134,
      "佹": 2135,
      "佻": 2136,
      "佽": 2137,
      "使": 2138,
      "來": 2139,
      "例": 2140,
      "侍": 2141,
      "供": 2142,
      "依": 2143,
      "侠": 2144,
      "価": 2145,
      "侣": 2146,
      "侥": 2147,
      "侦": 2148,
      "侧": 2149,
      "侬": 2150,
      "侮": 2151,
      "侯": 2152,
      "侵": 2153,
      "侶": 2154,
      "便": 2155,
      "係": 2156,
      "促": 2157,
      "俄": 2158,
      "俊": 2159,
      "俏": 2160,
      "俗": 2161,
      "保": 2162,
      "俞": 2163,
      "俟": 2164,
      "信": 2165,
      "俨": 2166,
      "俩": 2167,
      "俭": 2168,
      "修": 2169,
      "俯": 2170,
      "俱": 2171,
      "俳": 2172,
      "俵": 2173,
      "俶": 2174,
      "俺": 2175,
      "俾": 2176,
      "倉": 2177,
      "個": 2178,
      "倍": 2179,
      "們": 2180,
      "倒": 2181,
      "倖": 2182,
      "倘": 2183,
      "候": 2184,
      "倚": 2185,
      "借": 2186,
      "倡": 2187,
      "倣": 2188,
      "値": 2189,
      "倩": 2190,
      "倪": 2191,
      "倫": 2192,
      "倹": 2193,
      "债": 2194,
      "值": 2195,
      "倾": 2196,
      "假": 2197,
      "偌": 2198,
      "偏": 2199,
      "做": 2200,
      "停": 2201,
      "健": 2202,
      "偲": 2203,
      "側": 2204,
      "偵": 2205,
      "偶": 2206,
      "偷": 2207,
      "偽": 2208,
      "偿": 2209,
      "傀": 2210,
      "傅": 2211,
      "傍": 2212,
      "傑": 2213,
      "傘": 2214,
      "備": 2215,
      "储": 2216,
      "催": 2217,
      "傭": 2218,
      "傲": 2219,
      "傳": 2220,
      "債": 2221,
      "傷": 2222,
      "傻": 2223,
      "傾": 2224,
      "僅": 2225,
      "働": 2226,
      "像": 2227,
      "僕": 2228,
      "僚": 2229,
      "僵": 2230,
      "價": 2231,
      "僻": 2232,
      "儀": 2233,
      "億": 2234,
      "儘": 2235,
      "償": 2236,
      "儡": 2237,
      "優": 2238,
      "儲": 2239,
      "儿": 2240,
      "兀": 2241,
      "允": 2242,
      "元": 2243,
      "兄": 2244,
      "充": 2245,
      "兆": 2246,
      "先": 2247,
      "光": 2248,
      "克": 2249,
      "兌": 2250,
      "免": 2251,
      "児": 2252,
      "兑": 2253,
      "兔": 2254,
      "党": 2255,
      "兜": 2256,
      "入": 2257,
      "內": 2258,
      "全": 2259,
      "兩": 2260,
      "八": 2261,
      "公": 2262,
      "六": 2263,
      "兮": 2264,
      "兰": 2265,
      "共": 2266,
      "兲": 2267,
      "关": 2268,
      "兴": 2269,
      "兵": 2270,
      "其": 2271,
      "具": 2272,
      "典": 2273,
      "兹": 2274,
      "养": 2275,
      "兼": 2276,
      "兽": 2277,
      "冀": 2278,
      "内": 2279,
      "円": 2280,
      "冇": 2281,
      "冈": 2282,
      "冉": 2283,
      "冊": 2284,
      "册": 2285,
      "再": 2286,
      "冒": 2287,
      "冕": 2288,
      "冗": 2289,
      "写": 2290,
      "军": 2291,
      "农": 2292,
      "冠": 2293,
      "冥": 2294,
      "冨": 2295,
      "冪": 2296,
      "冬": 2297,
      "冯": 2298,
      "冰": 2299,
      "冲": 2300,
      "决": 2301,
      "况": 2302,
      "冶": 2303,
      "冷": 2304,
      "冻": 2305,
      "净": 2306,
      "凄": 2307,
      "准": 2308,
      "凉": 2309,
      "凌": 2310,
      "凍": 2311,
      "减": 2312,
      "凑": 2313,
      "凜": 2314,
      "凝": 2315,
      "几": 2316,
      "凡": 2317,
      "凤": 2318,
      "処": 2319,
      "凭": 2320,
      "凯": 2321,
      "凰": 2322,
      "凱": 2323,
      "凳": 2324,
      "凶": 2325,
      "凸": 2326,
      "凹": 2327,
      "出": 2328,
      "击": 2329,
      "函": 2330,
      "凿": 2331,
      "刀": 2332,
      "刁": 2333,
      "刃": 2334,
      "分": 2335,
      "切": 2336,
      "刈": 2337,
      "刊": 2338,
      "刑": 2339,
      "划": 2340,
      "列": 2341,
      "刘": 2342,
      "则": 2343,
      "刚": 2344,
      "创": 2345,
      "初": 2346,
      "删": 2347,
      "判": 2348,
      "別": 2349,
      "利": 2350,
      "刪": 2351,
      "别": 2352,
      "刮": 2353,
      "到": 2354,
      "制": 2355,
      "刷": 2356,
      "券": 2357,
      "刹": 2358,
      "刺": 2359,
      "刻": 2360,
      "剂": 2361,
      "剃": 2362,
      "則": 2363,
      "削": 2364,
      "前": 2365,
      "剐": 2366,
      "剑": 2367,
      "剔": 2368,
      "剖": 2369,
      "剛": 2370,
      "剣": 2371,
      "剤": 2372,
      "剥": 2373,
      "剧": 2374,
      "剩": 2375,
      "剪": 2376,
      "副": 2377,
      "剰": 2378,
      "割": 2379,
      "創": 2380,
      "剽": 2381,
      "劃": 2382,
      "劇": 2383,
      "劈": 2384,
      "劉": 2385,
      "劑": 2386,
      "力": 2387,
      "劝": 2388,
      "办": 2389,
      "功": 2390,
      "加": 2391,
      "务": 2392,
      "劣": 2393,
      "动": 2394,
      "助": 2395,
      "努": 2396,
      "劫": 2397,
      "劭": 2398,
      "励": 2399,
      "劲": 2400,
      "劳": 2401,
      "労": 2402,
      "効": 2403,
      "劼": 2404,
      "劾": 2405,
      "势": 2406,
      "勃": 2407,
      "勅": 2408,
      "勇": 2409,
      "勉": 2410,
      "勒": 2411,
      "動": 2412,
      "勘": 2413,
      "務": 2414,
      "勝": 2415,
      "募": 2416,
      "勢": 2417,
      "勤": 2418,
      "勧": 2419,
      "勫": 2420,
      "勵": 2421,
      "勺": 2422,
      "勻": 2423,
      "勾": 2424,
      "勿": 2425,
      "匀": 2426,
      "包": 2427,
      "匆": 2428,
      "匈": 2429,
      "化": 2430,
      "北": 2431,
      "匙": 2432,
      "匠": 2433,
      "匪": 2434,
      "匮": 2435,
      "匹": 2436,
      "区": 2437,
      "医": 2438,
      "匿": 2439,
      "區": 2440,
      "十": 2441,
      "千": 2442,
      "升": 2443,
      "午": 2444,
      "半": 2445,
      "卍": 2446,
      "华": 2447,
      "协": 2448,
      "卑": 2449,
      "卒": 2450,
      "卓": 2451,
      "協": 2452,
      "单": 2453,
      "卖": 2454,
      "南": 2455,
      "単": 2456,
      "博": 2457,
      "卜": 2458,
      "占": 2459,
      "卡": 2460,
      "卢": 2461,
      "卦": 2462,
      "卧": 2463,
      "卫": 2464,
      "印": 2465,
      "危": 2466,
      "即": 2467,
      "却": 2468,
      "卵": 2469,
      "卷": 2470,
      "卸": 2471,
      "卻": 2472,
      "卿": 2473,
      "厂": 2474,
      "厄": 2475,
      "厅": 2476,
      "历": 2477,
      "厉": 2478,
      "压": 2479,
      "厌": 2480,
      "厕": 2481,
      "厘": 2482,
      "厚": 2483,
      "原": 2484,
      "厢": 2485,
      "厥": 2486,
      "厦": 2487,
      "厨": 2488,
      "厲": 2489,
      "厳": 2490,
      "去": 2491,
      "县": 2492,
      "叁": 2493,
      "参": 2494,
      "參": 2495,
      "又": 2496,
      "叉": 2497,
      "及": 2498,
      "友": 2499,
      "双": 2500,
      "反": 2501,
      "収": 2502,
      "叏": 2503,
      "发": 2504,
      "叔": 2505,
      "取": 2506,
      "受": 2507,
      "变": 2508,
      "叙": 2509,
      "叛": 2510,
      "叠": 2511,
      "口": 2512,
      "古": 2513,
      "句": 2514,
      "另": 2515,
      "叨": 2516,
      "只": 2517,
      "叫": 2518,
      "召": 2519,
      "叭": 2520,
      "可": 2521,
      "台": 2522,
      "史": 2523,
      "右": 2524,
      "叶": 2525,
      "号": 2526,
      "司": 2527,
      "叹": 2528,
      "叻": 2529,
      "叼": 2530,
      "吁": 2531,
      "吃": 2532,
      "各": 2533,
      "合": 2534,
      "吉": 2535,
      "吊": 2536,
      "同": 2537,
      "名": 2538,
      "后": 2539,
      "吏": 2540,
      "吐": 2541,
      "向": 2542,
      "吓": 2543,
      "吕": 2544,
      "吗": 2545,
      "君": 2546,
      "吞": 2547,
      "吟": 2548,
      "否": 2549,
      "吧": 2550,
      "吨": 2551,
      "含": 2552,
      "听": 2553,
      "启": 2554,
      "吱": 2555,
      "吳": 2556,
      "吴": 2557,
      "吵": 2558,
      "吸": 2559,
      "吹": 2560,
      "吻": 2561,
      "吾": 2562,
      "呀": 2563,
      "呂": 2564,
      "呃": 2565,
      "呆": 2566,
      "呈": 2567,
      "呉": 2568,
      "告": 2569,
      "呋": 2570,
      "呑": 2571,
      "呕": 2572,
      "呗": 2573,
      "员": 2574,
      "呢": 2575,
      "呤": 2576,
      "呦": 2577,
      "周": 2578,
      "呪": 2579,
      "味": 2580,
      "呵": 2581,
      "呼": 2582,
      "命": 2583,
      "咁": 2584,
      "咋": 2585,
      "和": 2586,
      "咎": 2587,
      "咐": 2588,
      "咒": 2589,
      "咖": 2590,
      "咗": 2591,
      "咙": 2592,
      "咚": 2593,
      "咦": 2594,
      "咧": 2595,
      "咨": 2596,
      "咩": 2597,
      "咪": 2598,
      "咯": 2599,
      "咱": 2600,
      "咳": 2601,
      "咸": 2602,
      "咻": 2603,
      "咽": 2604,
      "哀": 2605,
      "品": 2606,
      "哄": 2607,
      "哆": 2608,
      "哇": 2609,
      "哈": 2610,
      "哉": 2611,
      "哋": 2612,
      "哌": 2613,
      "响": 2614,
      "哎": 2615,
      "哑": 2616,
      "哒": 2617,
      "哗": 2618,
      "哟": 2619,
      "員": 2620,
      "哥": 2621,
      "哦": 2622,
      "哨": 2623,
      "哩": 2624,
      "哪": 2625,
      "哭": 2626,
      "哲": 2627,
      "哺": 2628,
      "哼": 2629,
      "哿": 2630,
      "唄": 2631,
      "唆": 2632,
      "唇": 2633,
      "唐": 2634,
      "唔": 2635,
      "唠": 2636,
      "唤": 2637,
      "售": 2638,
      "唯": 2639,
      "唱": 2640,
      "啃": 2641,
      "啄": 2642,
      "商": 2643,
      "啊": 2644,
      "啋": 2645,
      "問": 2646,
      "啓": 2647,
      "啟": 2648,
      "啡": 2649,
      "啥": 2650,
      "啦": 2651,
      "啫": 2652,
      "啰": 2653,
      "啲": 2654,
      "啸": 2655,
      "啼": 2656,
      "喂": 2657,
      "善": 2658,
      "喇": 2659,
      "喉": 2660,
      "喊": 2661,
      "喋": 2662,
      "喎": 2663,
      "喔": 2664,
      "喘": 2665,
      "喚": 2666,
      "喜": 2667,
      "喝": 2668,
      "喧": 2669,
      "喪": 2670,
      "喫": 2671,
      "單": 2672,
      "営": 2673,
      "喷": 2674,
      "喺": 2675,
      "喻": 2676,
      "嗅": 2677,
      "嗎": 2678,
      "嗓": 2679,
      "嗗": 2680,
      "嗜": 2681,
      "嗣": 2682,
      "嗦": 2683,
      "嗪": 2684,
      "嗯": 2685,
      "嗰": 2686,
      "嗽": 2687,
      "嘅": 2688,
      "嘆": 2689,
      "嘈": 2690,
      "嘉": 2691,
      "嘗": 2692,
      "嘘": 2693,
      "嘛": 2694,
      "嘞": 2695,
      "嘢": 2696,
      "嘱": 2697,
      "嘲": 2698,
      "嘴": 2699,
      "嘶": 2700,
      "嘸": 2701,
      "嘿": 2702,
      "噉": 2703,
      "噌": 2704,
      "噎": 2705,
      "噜": 2706,
      "噢": 2707,
      "器": 2708,
      "噪": 2709,
      "噬": 2710,
      "噴": 2711,
      "嚇": 2712,
      "嚎": 2713,
      "嚟": 2714,
      "嚮": 2715,
      "嚴": 2716,
      "囉": 2717,
      "囊": 2718,
      "囚": 2719,
      "四": 2720,
      "回": 2721,
      "因": 2722,
      "团": 2723,
      "団": 2724,
      "囤": 2725,
      "囥": 2726,
      "囦": 2727,
      "囫": 2728,
      "园": 2729,
      "困": 2730,
      "囲": 2731,
      "図": 2732,
      "围": 2733,
      "囵": 2734,
      "固": 2735,
      "国": 2736,
      "图": 2737,
      "圆": 2738,
      "圈": 2739,
      "圊": 2740,
      "國": 2741,
      "圏": 2742,
      "園": 2743,
      "圓": 2744,
      "圖": 2745,
      "團": 2746,
      "土": 2747,
      "圣": 2748,
      "圧": 2749,
      "在": 2750,
      "圭": 2751,
      "地": 2752,
      "圳": 2753,
      "场": 2754,
      "圾": 2755,
      "址": 2756,
      "坂": 2757,
      "均": 2758,
      "坊": 2759,
      "坍": 2760,
      "坎": 2761,
      "坏": 2762,
      "坐": 2763,
      "坑": 2764,
      "块": 2765,
      "坚": 2766,
      "坛": 2767,
      "坝": 2768,
      "坞": 2769,
      "坠": 2770,
      "坡": 2771,
      "坤": 2772,
      "坦": 2773,
      "坪": 2774,
      "垂": 2775,
      "垃": 2776,
      "垄": 2777,
      "型": 2778,
      "垒": 2779,
      "垓": 2780,
      "垚": 2781,
      "垡": 2782,
      "垣": 2783,
      "垫": 2784,
      "垮": 2785,
      "埃": 2786,
      "埋": 2787,
      "城": 2788,
      "域": 2789,
      "執": 2790,
      "培": 2791,
      "基": 2792,
      "埼": 2793,
      "堀": 2794,
      "堂": 2795,
      "堅": 2796,
      "堆": 2797,
      "堡": 2798,
      "堤": 2799,
      "堪": 2800,
      "堯": 2801,
      "報": 2802,
      "場": 2803,
      "堵": 2804,
      "塊": 2805,
      "塌": 2806,
      "塑": 2807,
      "塔": 2808,
      "塗": 2809,
      "塞": 2810,
      "塢": 2811,
      "填": 2812,
      "塳": 2813,
      "境": 2814,
      "墓": 2815,
      "増": 2816,
      "墙": 2817,
      "墜": 2818,
      "增": 2819,
      "墟": 2820,
      "墨": 2821,
      "墳": 2822,
      "墾": 2823,
      "壁": 2824,
      "壅": 2825,
      "壇": 2826,
      "壊": 2827,
      "壌": 2828,
      "壓": 2829,
      "壤": 2830,
      "士": 2831,
      "壬": 2832,
      "壮": 2833,
      "声": 2834,
      "売": 2835,
      "壳": 2836,
      "壶": 2837,
      "壹": 2838,
      "处": 2839,
      "备": 2840,
      "変": 2841,
      "复": 2842,
      "夏": 2843,
      "夕": 2844,
      "外": 2845,
      "多": 2846,
      "夜": 2847,
      "够": 2848,
      "夠": 2849,
      "夢": 2850,
      "夥": 2851,
      "大": 2852,
      "天": 2853,
      "太": 2854,
      "夫": 2855,
      "央": 2856,
      "夯": 2857,
      "失": 2858,
      "头": 2859,
      "夸": 2860,
      "夹": 2861,
      "夺": 2862,
      "奂": 2863,
      "奇": 2864,
      "奈": 2865,
      "奉": 2866,
      "奋": 2867,
      "奎": 2868,
      "奏": 2869,
      "契": 2870,
      "奔": 2871,
      "奕": 2872,
      "奖": 2873,
      "套": 2874,
      "奠": 2875,
      "奥": 2876,
      "奨": 2877,
      "奪": 2878,
      "奮": 2879,
      "女": 2880,
      "奴": 2881,
      "奶": 2882,
      "奸": 2883,
      "她": 2884,
      "好": 2885,
      "如": 2886,
      "妃": 2887,
      "妄": 2888,
      "妆": 2889,
      "妇": 2890,
      "妈": 2891,
      "妊": 2892,
      "妓": 2893,
      "妖": 2894,
      "妙": 2895,
      "妥": 2896,
      "妨": 2897,
      "妬": 2898,
      "妮": 2899,
      "妲": 2900,
      "妹": 2901,
      "妻": 2902,
      "妾": 2903,
      "姆": 2904,
      "姉": 2905,
      "始": 2906,
      "姐": 2907,
      "姑": 2908,
      "姓": 2909,
      "委": 2910,
      "姚": 2911,
      "姜": 2912,
      "姣": 2913,
      "姨": 2914,
      "姫": 2915,
      "姬": 2916,
      "姱": 2917,
      "姻": 2918,
      "姿": 2919,
      "威": 2920,
      "娃": 2921,
      "娅": 2922,
      "娇": 2923,
      "娉": 2924,
      "娓": 2925,
      "娘": 2926,
      "娜": 2927,
      "娠": 2928,
      "娩": 2929,
      "娯": 2930,
      "娱": 2931,
      "娴": 2932,
      "娶": 2933,
      "婆": 2934,
      "婉": 2935,
      "婚": 2936,
      "婦": 2937,
      "婪": 2938,
      "婴": 2939,
      "婷": 2940,
      "媒": 2941,
      "媚": 2942,
      "媛": 2943,
      "媲": 2944,
      "媳": 2945,
      "媽": 2946,
      "嫁": 2947,
      "嫉": 2948,
      "嫌": 2949,
      "嫡": 2950,
      "嫩": 2951,
      "嬉": 2952,
      "嬛": 2953,
      "嬢": 2954,
      "子": 2955,
      "孔": 2956,
      "孕": 2957,
      "字": 2958,
      "存": 2959,
      "孙": 2960,
      "孜": 2961,
      "孝": 2962,
      "孟": 2963,
      "孢": 2964,
      "季": 2965,
      "孤": 2966,
      "学": 2967,
      "孩": 2968,
      "孪": 2969,
      "孫": 2970,
      "孰": 2971,
      "學": 2972,
      "宁": 2973,
      "它": 2974,
      "宅": 2975,
      "宇": 2976,
      "守": 2977,
      "安": 2978,
      "宋": 2979,
      "完": 2980,
      "宏": 2981,
      "宕": 2982,
      "宗": 2983,
      "官": 2984,
      "宙": 2985,
      "定": 2986,
      "宛": 2987,
      "宜": 2988,
      "宝": 2989,
      "实": 2990,
      "実": 2991,
      "宠": 2992,
      "审": 2993,
      "客": 2994,
      "宣": 2995,
      "室": 2996,
      "宥": 2997,
      "宪": 2998,
      "宫": 2999,
      "宮": 3000,
      "宰": 3001,
      "害": 3002,
      "宴": 3003,
      "宵": 3004,
      "家": 3005,
      "容": 3006,
      "宽": 3007,
      "宾": 3008,
      "宿": 3009,
      "寂": 3010,
      "寄": 3011,
      "寅": 3012,
      "密": 3013,
      "富": 3014,
      "寐": 3015,
      "寒": 3016,
      "寓": 3017,
      "寛": 3018,
      "寝": 3019,
      "察": 3020,
      "寡": 3021,
      "實": 3022,
      "寧": 3023,
      "審": 3024,
      "寫": 3025,
      "寬": 3026,
      "寮": 3027,
      "寰": 3028,
      "寶": 3029,
      "寸": 3030,
      "对": 3031,
      "寺": 3032,
      "寻": 3033,
      "导": 3034,
      "対": 3035,
      "寿": 3036,
      "封": 3037,
      "専": 3038,
      "射": 3039,
      "将": 3040,
      "將": 3041,
      "專": 3042,
      "尉": 3043,
      "尊": 3044,
      "尋": 3045,
      "對": 3046,
      "導": 3047,
      "小": 3048,
      "少": 3049,
      "尔": 3050,
      "尖": 3051,
      "尘": 3052,
      "尚": 3053,
      "尝": 3054,
      "尤": 3055,
      "尧": 3056,
      "尬": 3057,
      "就": 3058,
      "尴": 3059,
      "尸": 3060,
      "尹": 3061,
      "尺": 3062,
      "尻": 3063,
      "尼": 3064,
      "尽": 3065,
      "尾": 3066,
      "尿": 3067,
      "局": 3068,
      "层": 3069,
      "居": 3070,
      "屈": 3071,
      "届": 3072,
      "屋": 3073,
      "屎": 3074,
      "屏": 3075,
      "屑": 3076,
      "屓": 3077,
      "展": 3078,
      "属": 3079,
      "屠": 3080,
      "屡": 3081,
      "層": 3082,
      "履": 3083,
      "屦": 3084,
      "屬": 3085,
      "屯": 3086,
      "山": 3087,
      "屹": 3088,
      "屽": 3089,
      "岁": 3090,
      "岂": 3091,
      "岐": 3092,
      "岔": 3093,
      "岖": 3094,
      "岗": 3095,
      "岛": 3096,
      "岡": 3097,
      "岩": 3098,
      "岬": 3099,
      "岭": 3100,
      "岳": 3101,
      "岸": 3102,
      "峠": 3103,
      "峥": 3104,
      "峭": 3105,
      "峰": 3106,
      "島": 3107,
      "峻": 3108,
      "崇": 3109,
      "崎": 3110,
      "崑": 3111,
      "崔": 3112,
      "崖": 3113,
      "崛": 3114,
      "崧": 3115,
      "崩": 3116,
      "崭": 3117,
      "崽": 3118,
      "嵌": 3119,
      "嵐": 3120,
      "嵘": 3121,
      "嶆": 3122,
      "嶋": 3123,
      "嶨": 3124,
      "巅": 3125,
      "巍": 3126,
      "川": 3127,
      "州": 3128,
      "巡": 3129,
      "巣": 3130,
      "工": 3131,
      "左": 3132,
      "巧": 3133,
      "巨": 3134,
      "巩": 3135,
      "巫": 3136,
      "差": 3137,
      "己": 3138,
      "已": 3139,
      "巴": 3140,
      "巻": 3141,
      "巾": 3142,
      "币": 3143,
      "市": 3144,
      "布": 3145,
      "帅": 3146,
      "帆": 3147,
      "师": 3148,
      "希": 3149,
      "帐": 3150,
      "帕": 3151,
      "帖": 3152,
      "帘": 3153,
      "帚": 3154,
      "帝": 3155,
      "带": 3156,
      "帧": 3157,
      "師": 3158,
      "席": 3159,
      "帮": 3160,
      "帯": 3161,
      "帰": 3162,
      "帳": 3163,
      "帶": 3164,
      "常": 3165,
      "帽": 3166,
      "幂": 3167,
      "幅": 3168,
      "幕": 3169,
      "幢": 3170,
      "幣": 3171,
      "幫": 3172,
      "干": 3173,
      "平": 3174,
      "年": 3175,
      "并": 3176,
      "幷": 3177,
      "幸": 3178,
      "幹": 3179,
      "幺": 3180,
      "幻": 3181,
      "幼": 3182,
      "幽": 3183,
      "幾": 3184,
      "广": 3185,
      "庁": 3186,
      "広": 3187,
      "庄": 3188,
      "庆": 3189,
      "庇": 3190,
      "床": 3191,
      "序": 3192,
      "庐": 3193,
      "库": 3194,
      "应": 3195,
      "底": 3196,
      "店": 3197,
      "庙": 3198,
      "府": 3199,
      "庞": 3200,
      "废": 3201,
      "度": 3202,
      "座": 3203,
      "庫": 3204,
      "庭": 3205,
      "庶": 3206,
      "康": 3207,
      "庸": 3208,
      "廉": 3209,
      "廊": 3210,
      "廓": 3211,
      "廠": 3212,
      "廢": 3213,
      "廣": 3214,
      "延": 3215,
      "廷": 3216,
      "建": 3217,
      "廿": 3218,
      "开": 3219,
      "弁": 3220,
      "异": 3221,
      "弃": 3222,
      "弄": 3223,
      "弈": 3224,
      "弊": 3225,
      "弋": 3226,
      "式": 3227,
      "引": 3228,
      "弗": 3229,
      "弘": 3230,
      "弛": 3231,
      "弟": 3232,
      "张": 3233,
      "弥": 3234,
      "弦": 3235,
      "弧": 3236,
      "弯": 3237,
      "弱": 3238,
      "張": 3239,
      "強": 3240,
      "弹": 3241,
      "强": 3242,
      "弾": 3243,
      "彈": 3244,
      "归": 3245,
      "当": 3246,
      "录": 3247,
      "彗": 3248,
      "彙": 3249,
      "彡": 3250,
      "形": 3251,
      "彦": 3252,
      "彩": 3253,
      "彫": 3254,
      "彬": 3255,
      "彭": 3256,
      "彰": 3257,
      "影": 3258,
      "役": 3259,
      "彻": 3260,
      "彼": 3261,
      "彿": 3262,
      "往": 3263,
      "征": 3264,
      "径": 3265,
      "待": 3266,
      "很": 3267,
      "徊": 3268,
      "律": 3269,
      "後": 3270,
      "徐": 3271,
      "徑": 3272,
      "徒": 3273,
      "従": 3274,
      "得": 3275,
      "徘": 3276,
      "徛": 3277,
      "從": 3278,
      "御": 3279,
      "復": 3280,
      "循": 3281,
      "微": 3282,
      "徳": 3283,
      "徴": 3284,
      "徵": 3285,
      "德": 3286,
      "徹": 3287,
      "徽": 3288,
      "心": 3289,
      "必": 3290,
      "忆": 3291,
      "忌": 3292,
      "忍": 3293,
      "忎": 3294,
      "志": 3295,
      "忘": 3296,
      "忙": 3297,
      "応": 3298,
      "忠": 3299,
      "忧": 3300,
      "快": 3301,
      "念": 3302,
      "忻": 3303,
      "忽": 3304,
      "怀": 3305,
      "态": 3306,
      "怅": 3307,
      "怎": 3308,
      "怒": 3309,
      "怔": 3310,
      "怕": 3311,
      "怖": 3312,
      "怜": 3313,
      "思": 3314,
      "怠": 3315,
      "怡": 3316,
      "急": 3317,
      "性": 3318,
      "怨": 3319,
      "怪": 3320,
      "总": 3321,
      "怼": 3322,
      "怿": 3323,
      "恋": 3324,
      "恐": 3325,
      "恒": 3326,
      "恙": 3327,
      "恢": 3328,
      "恣": 3329,
      "恤": 3330,
      "恨": 3331,
      "恩": 3332,
      "恭": 3333,
      "息": 3334,
      "恰": 3335,
      "恵": 3336,
      "恶": 3337,
      "恺": 3338,
      "恼": 3339,
      "恽": 3340,
      "悉": 3341,
      "悌": 3342,
      "悍": 3343,
      "悔": 3344,
      "悖": 3345,
      "悚": 3346,
      "悟": 3347,
      "悠": 3348,
      "患": 3349,
      "悦": 3350,
      "您": 3351,
      "悩": 3352,
      "悪": 3353,
      "悬": 3354,
      "悲": 3355,
      "情": 3356,
      "惆": 3357,
      "惊": 3358,
      "惑": 3359,
      "惕": 3360,
      "惜": 3361,
      "惠": 3362,
      "惧": 3363,
      "惨": 3364,
      "惩": 3365,
      "惯": 3366,
      "惰": 3367,
      "想": 3368,
      "惹": 3369,
      "愁": 3370,
      "愈": 3371,
      "愉": 3372,
      "意": 3373,
      "愚": 3374,
      "愛": 3375,
      "感": 3376,
      "愣": 3377,
      "愤": 3378,
      "愫": 3379,
      "愿": 3380,
      "慈": 3381,
      "態": 3382,
      "慌": 3383,
      "慎": 3384,
      "慕": 3385,
      "慢": 3386,
      "慣": 3387,
      "慧": 3388,
      "慮": 3389,
      "慰": 3390,
      "慶": 3391,
      "憂": 3392,
      "憋": 3393,
      "憎": 3394,
      "憑": 3395,
      "憤": 3396,
      "憧": 3397,
      "憩": 3398,
      "憬": 3399,
      "憲": 3400,
      "憶": 3401,
      "憾": 3402,
      "懂": 3403,
      "懇": 3404,
      "應": 3405,
      "懊": 3406,
      "懐": 3407,
      "懒": 3408,
      "懲": 3409,
      "懷": 3410,
      "懸": 3411,
      "懿": 3412,
      "戈": 3413,
      "戊": 3414,
      "戌": 3415,
      "戎": 3416,
      "戏": 3417,
      "成": 3418,
      "我": 3419,
      "戒": 3420,
      "或": 3421,
      "战": 3422,
      "戚": 3423,
      "戦": 3424,
      "截": 3425,
      "戯": 3426,
      "戰": 3427,
      "戳": 3428,
      "戴": 3429,
      "戶": 3430,
      "户": 3431,
      "戸": 3432,
      "戻": 3433,
      "房": 3434,
      "所": 3435,
      "扁": 3436,
      "扇": 3437,
      "手": 3438,
      "才": 3439,
      "扎": 3440,
      "扑": 3441,
      "打": 3442,
      "扔": 3443,
      "払": 3444,
      "托": 3445,
      "扣": 3446,
      "执": 3447,
      "扩": 3448,
      "扫": 3449,
      "扬": 3450,
      "扭": 3451,
      "扮": 3452,
      "扯": 3453,
      "扰": 3454,
      "扱": 3455,
      "扶": 3456,
      "批": 3457,
      "扼": 3458,
      "找": 3459,
      "承": 3460,
      "技": 3461,
      "抄": 3462,
      "把": 3463,
      "抑": 3464,
      "抓": 3465,
      "投": 3466,
      "抖": 3467,
      "抗": 3468,
      "折": 3469,
      "抚": 3470,
      "抛": 3471,
      "抜": 3472,
      "択": 3473,
      "抠": 3474,
      "抢": 3475,
      "护": 3476,
      "报": 3477,
      "披": 3478,
      "抬": 3479,
      "抱": 3480,
      "抵": 3481,
      "抹": 3482,
      "押": 3483,
      "抽": 3484,
      "拄": 3485,
      "担": 3486,
      "拆": 3487,
      "拉": 3488,
      "拍": 3489,
      "拎": 3490,
      "拐": 3491,
      "拒": 3492,
      "拓": 3493,
      "拔": 3494,
      "拖": 3495,
      "拗": 3496,
      "拘": 3497,
      "拙": 3498,
      "招": 3499,
      "拜": 3500,
      "拝": 3501,
      "拟": 3502,
      "拠": 3503,
      "拡": 3504,
      "拢": 3505,
      "拥": 3506,
      "拦": 3507,
      "拨": 3508,
      "择": 3509,
      "括": 3510,
      "拭": 3511,
      "拮": 3512,
      "拯": 3513,
      "拳": 3514,
      "拴": 3515,
      "拷": 3516,
      "拼": 3517,
      "拽": 3518,
      "拾": 3519,
      "拿": 3520,
      "持": 3521,
      "挂": 3522,
      "指": 3523,
      "按": 3524,
      "挑": 3525,
      "挖": 3526,
      "挙": 3527,
      "挟": 3528,
      "挠": 3529,
      "挡": 3530,
      "挣": 3531,
      "挤": 3532,
      "挥": 3533,
      "挨": 3534,
      "挪": 3535,
      "挫": 3536,
      "振": 3537,
      "挺": 3538,
      "挽": 3539,
      "挿": 3540,
      "捂": 3541,
      "捆": 3542,
      "捉": 3543,
      "捏": 3544,
      "捕": 3545,
      "捗": 3546,
      "损": 3547,
      "换": 3548,
      "捧": 3549,
      "捨": 3550,
      "据": 3551,
      "捷": 3552,
      "掀": 3553,
      "授": 3554,
      "掉": 3555,
      "掌": 3556,
      "掎": 3557,
      "掏": 3558,
      "掐": 3559,
      "排": 3560,
      "掖": 3561,
      "掘": 3562,
      "掛": 3563,
      "採": 3564,
      "探": 3565,
      "接": 3566,
      "控": 3567,
      "推": 3568,
      "掩": 3569,
      "措": 3570,
      "掲": 3571,
      "掳": 3572,
      "掴": 3573,
      "掺": 3574,
      "揃": 3575,
      "揉": 3576,
      "揍": 3577,
      "描": 3578,
      "提": 3579,
      "插": 3580,
      "揘": 3581,
      "揚": 3582,
      "換": 3583,
      "握": 3584,
      "揪": 3585,
      "揫": 3586,
      "揭": 3587,
      "揮": 3588,
      "援": 3589,
      "揺": 3590,
      "搅": 3591,
      "損": 3592,
      "搏": 3593,
      "搔": 3594,
      "搜": 3595,
      "搞": 3596,
      "搬": 3597,
      "搭": 3598,
      "搶": 3599,
      "携": 3600,
      "摂": 3601,
      "摄": 3602,
      "摆": 3603,
      "摇": 3604,
      "摈": 3605,
      "摊": 3606,
      "摒": 3607,
      "摔": 3608,
      "摘": 3609,
      "摩": 3610,
      "摭": 3611,
      "摸": 3612,
      "摹": 3613,
      "撃": 3614,
      "撅": 3615,
      "撇": 3616,
      "撐": 3617,
      "撑": 3618,
      "撒": 3619,
      "撕": 3620,
      "撞": 3621,
      "撤": 3622,
      "撩": 3623,
      "播": 3624,
      "撮": 3625,
      "撰": 3626,
      "撸": 3627,
      "撿": 3628,
      "擁": 3629,
      "擅": 3630,
      "擇": 3631,
      "擊": 3632,
      "操": 3633,
      "擎": 3634,
      "擔": 3635,
      "據": 3636,
      "擜": 3637,
      "擠": 3638,
      "擦": 3639,
      "擬": 3640,
      "擴": 3641,
      "擺": 3642,
      "攀": 3643,
      "攒": 3644,
      "攜": 3645,
      "攝": 3646,
      "支": 3647,
      "攵": 3648,
      "收": 3649,
      "改": 3650,
      "攻": 3651,
      "放": 3652,
      "政": 3653,
      "故": 3654,
      "效": 3655,
      "敌": 3656,
      "敏": 3657,
      "救": 3658,
      "敖": 3659,
      "敗": 3660,
      "敘": 3661,
      "教": 3662,
      "敛": 3663,
      "敝": 3664,
      "敞": 3665,
      "敢": 3666,
      "散": 3667,
      "敦": 3668,
      "敬": 3669,
      "数": 3670,
      "敲": 3671,
      "整": 3672,
      "敵": 3673,
      "敷": 3674,
      "數": 3675,
      "斂": 3676,
      "文": 3677,
      "斋": 3678,
      "斌": 3679,
      "斐": 3680,
      "斑": 3681,
      "斗": 3682,
      "料": 3683,
      "斛": 3684,
      "斜": 3685,
      "斟": 3686,
      "斡": 3687,
      "斤": 3688,
      "斥": 3689,
      "斩": 3690,
      "斬": 3691,
      "断": 3692,
      "斯": 3693,
      "新": 3694,
      "方": 3695,
      "於": 3696,
      "施": 3697,
      "斿": 3698,
      "旁": 3699,
      "旅": 3700,
      "旋": 3701,
      "族": 3702,
      "旖": 3703,
      "旗": 3704,
      "无": 3705,
      "既": 3706,
      "日": 3707,
      "旦": 3708,
      "旧": 3709,
      "旨": 3710,
      "早": 3711,
      "旬": 3712,
      "旭": 3713,
      "时": 3714,
      "旸": 3715,
      "旺": 3716,
      "昂": 3717,
      "昆": 3718,
      "昇": 3719,
      "昊": 3720,
      "昌": 3721,
      "明": 3722,
      "昏": 3723,
      "易": 3724,
      "昔": 3725,
      "昕": 3726,
      "星": 3727,
      "映": 3728,
      "春": 3729,
      "昧": 3730,
      "昨": 3731,
      "昭": 3732,
      "是": 3733,
      "昱": 3734,
      "昴": 3735,
      "昵": 3736,
      "昶": 3737,
      "昼": 3738,
      "显": 3739,
      "時": 3740,
      "晃": 3741,
      "晋": 3742,
      "晏": 3743,
      "晒": 3744,
      "晓": 3745,
      "晔": 3746,
      "晕": 3747,
      "晖": 3748,
      "晗": 3749,
      "晚": 3750,
      "晟": 3751,
      "晡": 3752,
      "晦": 3753,
      "晨": 3754,
      "晩": 3755,
      "普": 3756,
      "景": 3757,
      "晰": 3758,
      "晴": 3759,
      "晶": 3760,
      "智": 3761,
      "暁": 3762,
      "暂": 3763,
      "暄": 3764,
      "暇": 3765,
      "暑": 3766,
      "暖": 3767,
      "暗": 3768,
      "暢": 3769,
      "暦": 3770,
      "暫": 3771,
      "暮": 3772,
      "暴": 3773,
      "暹": 3774,
      "曉": 3775,
      "曖": 3776,
      "曝": 3777,
      "曰": 3778,
      "曲": 3779,
      "更": 3780,
      "書": 3781,
      "曹": 3782,
      "曼": 3783,
      "曽": 3784,
      "曾": 3785,
      "替": 3786,
      "最": 3787,
      "會": 3788,
      "月": 3789,
      "有": 3790,
      "朋": 3791,
      "服": 3792,
      "朔": 3793,
      "朕": 3794,
      "朗": 3795,
      "望": 3796,
      "朝": 3797,
      "期": 3798,
      "木": 3799,
      "未": 3800,
      "末": 3801,
      "本": 3802,
      "札": 3803,
      "术": 3804,
      "朱": 3805,
      "朴": 3806,
      "朵": 3807,
      "机": 3808,
      "朽": 3809,
      "杀": 3810,
      "杂": 3811,
      "权": 3812,
      "杆": 3813,
      "杈": 3814,
      "杉": 3815,
      "李": 3816,
      "杏": 3817,
      "材": 3818,
      "村": 3819,
      "杖": 3820,
      "杜": 3821,
      "束": 3822,
      "杠": 3823,
      "条": 3824,
      "来": 3825,
      "杨": 3826,
      "杭": 3827,
      "杯": 3828,
      "杰": 3829,
      "東": 3830,
      "松": 3831,
      "板": 3832,
      "极": 3833,
      "枃": 3834,
      "构": 3835,
      "析": 3836,
      "枕": 3837,
      "林": 3838,
      "枚": 3839,
      "果": 3840,
      "枝": 3841,
      "枠": 3842,
      "枢": 3843,
      "枣": 3844,
      "枥": 3845,
      "枪": 3846,
      "枫": 3847,
      "枯": 3848,
      "枳": 3849,
      "架": 3850,
      "柄": 3851,
      "柊": 3852,
      "柏": 3853,
      "某": 3854,
      "柒": 3855,
      "染": 3856,
      "柔": 3857,
      "柜": 3858,
      "柠": 3859,
      "查": 3860,
      "柯": 3861,
      "柱": 3862,
      "柳": 3863,
      "柴": 3864,
      "柵": 3865,
      "査": 3866,
      "柿": 3867,
      "栄": 3868,
      "栅": 3869,
      "标": 3870,
      "栈": 3871,
      "栋": 3872,
      "栏": 3873,
      "树": 3874,
      "栓": 3875,
      "校": 3876,
      "栧": 3877,
      "株": 3878,
      "样": 3879,
      "核": 3880,
      "根": 3881,
      "格": 3882,
      "栽": 3883,
      "桁": 3884,
      "桂": 3885,
      "桃": 3886,
      "框": 3887,
      "案": 3888,
      "桌": 3889,
      "桐": 3890,
      "桑": 3891,
      "桓": 3892,
      "桔": 3893,
      "桜": 3894,
      "桟": 3895,
      "档": 3896,
      "桥": 3897,
      "桦": 3898,
      "桨": 3899,
      "桩": 3900,
      "桶": 3901,
      "梁": 3902,
      "梃": 3903,
      "梅": 3904,
      "梓": 3905,
      "梗": 3906,
      "條": 3907,
      "梢": 3908,
      "梦": 3909,
      "梧": 3910,
      "梨": 3911,
      "梯": 3912,
      "械": 3913,
      "梳": 3914,
      "梵": 3915,
      "梶": 3916,
      "检": 3917,
      "棄": 3918,
      "棉": 3919,
      "棋": 3920,
      "棍": 3921,
      "棒": 3922,
      "棕": 3923,
      "棘": 3924,
      "棚": 3925,
      "棟": 3926,
      "棣": 3927,
      "森": 3928,
      "棱": 3929,
      "棵": 3930,
      "椅": 3931,
      "植": 3932,
      "椎": 3933,
      "椒": 3934,
      "検": 3935,
      "椭": 3936,
      "楂": 3937,
      "楊": 3938,
      "楔": 3939,
      "楕": 3940,
      "楚": 3941,
      "楠": 3942,
      "業": 3943,
      "極": 3944,
      "楷": 3945,
      "楼": 3946,
      "楽": 3947,
      "概": 3948,
      "榄": 3949,
      "榔": 3950,
      "榛": 3951,
      "榜": 3952,
      "榨": 3953,
      "榴": 3954,
      "榷": 3955,
      "構": 3956,
      "様": 3957,
      "槛": 3958,
      "槟": 3959,
      "槪": 3960,
      "槻": 3961,
      "槽": 3962,
      "樂": 3963,
      "樊": 3964,
      "標": 3965,
      "樟": 3966,
      "模": 3967,
      "樣": 3968,
      "権": 3969,
      "横": 3970,
      "樱": 3971,
      "樹": 3972,
      "樺": 3973,
      "樽": 3974,
      "橄": 3975,
      "橋": 3976,
      "橘": 3977,
      "橙": 3978,
      "機": 3979,
      "橡": 3980,
      "橫": 3981,
      "檢": 3982,
      "檯": 3983,
      "欄": 3984,
      "權": 3985,
      "欠": 3986,
      "次": 3987,
      "欢": 3988,
      "欣": 3989,
      "欧": 3990,
      "欲": 3991,
      "欺": 3992,
      "欽": 3993,
      "款": 3994,
      "歇": 3995,
      "歉": 3996,
      "歌": 3997,
      "歡": 3998,
      "止": 3999,
      "正": 4000,
      "此": 4001,
      "步": 4002,
      "武": 4003,
      "歧": 4004,
      "歩": 4005,
      "歪": 4006,
      "歯": 4007,
      "歳": 4008,
      "歴": 4009,
      "歷": 4010,
      "死": 4011,
      "歼": 4012,
      "殆": 4013,
      "殉": 4014,
      "殊": 4015,
      "残": 4016,
      "殓": 4017,
      "殖": 4018,
      "殴": 4019,
      "段": 4020,
      "殷": 4021,
      "殺": 4022,
      "殻": 4023,
      "殿": 4024,
      "毀": 4025,
      "毁": 4026,
      "毅": 4027,
      "毋": 4028,
      "母": 4029,
      "毎": 4030,
      "每": 4031,
      "毒": 4032,
      "比": 4033,
      "毕": 4034,
      "毛": 4035,
      "毫": 4036,
      "毯": 4037,
      "氏": 4038,
      "民": 4039,
      "气": 4040,
      "気": 4041,
      "氘": 4042,
      "氛": 4043,
      "氟": 4044,
      "氢": 4045,
      "氣": 4046,
      "氧": 4047,
      "氨": 4048,
      "氪": 4049,
      "氯": 4050,
      "氰": 4051,
      "水": 4052,
      "氷": 4053,
      "永": 4054,
      "汀": 4055,
      "汁": 4056,
      "求": 4057,
      "汃": 4058,
      "汇": 4059,
      "汉": 4060,
      "汎": 4061,
      "汐": 4062,
      "汕": 4063,
      "汗": 4064,
      "汚": 4065,
      "汝": 4066,
      "江": 4067,
      "池": 4068,
      "污": 4069,
      "汤": 4070,
      "汧": 4071,
      "汪": 4072,
      "汰": 4073,
      "汲": 4074,
      "汴": 4075,
      "決": 4076,
      "汽": 4077,
      "沃": 4078,
      "沈": 4079,
      "沉": 4080,
      "沌": 4081,
      "沐": 4082,
      "沒": 4083,
      "沖": 4084,
      "沙": 4085,
      "沛": 4086,
      "沟": 4087,
      "没": 4088,
      "沢": 4089,
      "沥": 4090,
      "沧": 4091,
      "沩": 4092,
      "沪": 4093,
      "沫": 4094,
      "沮": 4095,
      "河": 4096,
      "沸": 4097,
      "油": 4098,
      "治": 4099,
      "沼": 4100,
      "沾": 4101,
      "沿": 4102,
      "況": 4103,
      "泄": 4104,
      "泉": 4105,
      "泊": 4106,
      "泌": 4107,
      "泓": 4108,
      "法": 4109,
      "泛": 4110,
      "泞": 4111,
      "泡": 4112,
      "波": 4113,
      "泣": 4114,
      "泥": 4115,
      "注": 4116,
      "泪": 4117,
      "泮": 4118,
      "泰": 4119,
      "泱": 4120,
      "泳": 4121,
      "泵": 4122,
      "泻": 4123,
      "泼": 4124,
      "泽": 4125,
      "洁": 4126,
      "洄": 4127,
      "洋": 4128,
      "洗": 4129,
      "洛": 4130,
      "洞": 4131,
      "津": 4132,
      "洩": 4133,
      "洪": 4134,
      "洲": 4135,
      "洺": 4136,
      "活": 4137,
      "洽": 4138,
      "派": 4139,
      "流": 4140,
      "浅": 4141,
      "浊": 4142,
      "测": 4143,
      "济": 4144,
      "浏": 4145,
      "浑": 4146,
      "浒": 4147,
      "浓": 4148,
      "浘": 4149,
      "浙": 4150,
      "浜": 4151,
      "浠": 4152,
      "浣": 4153,
      "浦": 4154,
      "浩": 4155,
      "浪": 4156,
      "浮": 4157,
      "浴": 4158,
      "海": 4159,
      "浸": 4160,
      "涂": 4161,
      "涅": 4162,
      "消": 4163,
      "涉": 4164,
      "涌": 4165,
      "涓": 4166,
      "涕": 4167,
      "涛": 4168,
      "涡": 4169,
      "涤": 4170,
      "润": 4171,
      "涨": 4172,
      "涩": 4173,
      "涯": 4174,
      "液": 4175,
      "涵": 4176,
      "淀": 4177,
      "淄": 4178,
      "淆": 4179,
      "淇": 4180,
      "淋": 4181,
      "淑": 4182,
      "淘": 4183,
      "淛": 4184,
      "淡": 4185,
      "淤": 4186,
      "淫": 4187,
      "淮": 4188,
      "深": 4189,
      "淳": 4190,
      "混": 4191,
      "淹": 4192,
      "淺": 4193,
      "添": 4194,
      "淼": 4195,
      "清": 4196,
      "渇": 4197,
      "済": 4198,
      "渉": 4199,
      "渊": 4200,
      "渋": 4201,
      "渍": 4202,
      "渐": 4203,
      "渓": 4204,
      "渔": 4205,
      "渕": 4206,
      "渗": 4207,
      "減": 4208,
      "渠": 4209,
      "渡": 4210,
      "渣": 4211,
      "渦": 4212,
      "温": 4213,
      "測": 4214,
      "港": 4215,
      "渲": 4216,
      "游": 4217,
      "渺": 4218,
      "湃": 4219,
      "湄": 4220,
      "湊": 4221,
      "湍": 4222,
      "湖": 4223,
      "湘": 4224,
      "湮": 4225,
      "湾": 4226,
      "湿": 4227,
      "満": 4228,
      "溃": 4229,
      "溅": 4230,
      "溉": 4231,
      "源": 4232,
      "準": 4233,
      "溜": 4234,
      "溝": 4235,
      "溢": 4236,
      "溯": 4237,
      "溴": 4238,
      "溶": 4239,
      "滅": 4240,
      "滉": 4241,
      "滋": 4242,
      "滑": 4243,
      "滚": 4244,
      "滝": 4245,
      "滞": 4246,
      "满": 4247,
      "滤": 4248,
      "滥": 4249,
      "滦": 4250,
      "滨": 4251,
      "滩": 4252,
      "滯": 4253,
      "滴": 4254,
      "滻": 4255,
      "滿": 4256,
      "漂": 4257,
      "漆": 4258,
      "漏": 4259,
      "演": 4260,
      "漠": 4261,
      "漢": 4262,
      "漩": 4263,
      "漫": 4264,
      "漬": 4265,
      "漱": 4266,
      "漳": 4267,
      "漸": 4268,
      "潇": 4269,
      "潍": 4270,
      "潔": 4271,
      "潘": 4272,
      "潜": 4273,
      "潞": 4274,
      "潟": 4275,
      "潢": 4276,
      "潤": 4277,
      "潭": 4278,
      "潮": 4279,
      "潰": 4280,
      "澄": 4281,
      "澈": 4282,
      "澎": 4283,
      "澡": 4284,
      "澤": 4285,
      "澳": 4286,
      "激": 4287,
      "濁": 4288,
      "濃": 4289,
      "濑": 4290,
      "濟": 4291,
      "濫": 4292,
      "濯": 4293,
      "濵": 4294,
      "濾": 4295,
      "瀚": 4296,
      "瀬": 4297,
      "瀹": 4298,
      "灌": 4299,
      "灏": 4300,
      "灣": 4301,
      "火": 4302,
      "灭": 4303,
      "灯": 4304,
      "灰": 4305,
      "灵": 4306,
      "灶": 4307,
      "灼": 4308,
      "災": 4309,
      "灾": 4310,
      "灿": 4311,
      "炀": 4312,
      "炅": 4313,
      "炉": 4314,
      "炎": 4315,
      "炒": 4316,
      "炖": 4317,
      "炙": 4318,
      "炜": 4319,
      "炫": 4320,
      "炭": 4321,
      "炮": 4322,
      "炳": 4323,
      "炸": 4324,
      "点": 4325,
      "為": 4326,
      "炼": 4327,
      "烁": 4328,
      "烂": 4329,
      "烈": 4330,
      "烔": 4331,
      "烘": 4332,
      "烙": 4333,
      "烜": 4334,
      "烟": 4335,
      "烤": 4336,
      "烦": 4337,
      "烧": 4338,
      "烨": 4339,
      "烫": 4340,
      "热": 4341,
      "烯": 4342,
      "烽": 4343,
      "焉": 4344,
      "焊": 4345,
      "焌": 4346,
      "焕": 4347,
      "無": 4348,
      "焦": 4349,
      "焯": 4350,
      "焰": 4351,
      "然": 4352,
      "焼": 4353,
      "煎": 4354,
      "煜": 4355,
      "煤": 4356,
      "煥": 4357,
      "照": 4358,
      "煮": 4359,
      "熄": 4360,
      "熊": 4361,
      "熔": 4362,
      "熙": 4363,
      "熟": 4364,
      "熬": 4365,
      "熱": 4366,
      "熵": 4367,
      "燃": 4368,
      "燕": 4369,
      "燥": 4370,
      "燭": 4371,
      "爆": 4372,
      "爐": 4373,
      "爪": 4374,
      "爬": 4375,
      "爭": 4376,
      "爱": 4377,
      "爵": 4378,
      "父": 4379,
      "爷": 4380,
      "爸": 4381,
      "爽": 4382,
      "爿": 4383,
      "片": 4384,
      "版": 4385,
      "牌": 4386,
      "牙": 4387,
      "牛": 4388,
      "牟": 4389,
      "牡": 4390,
      "牢": 4391,
      "牧": 4392,
      "物": 4393,
      "牲": 4394,
      "牵": 4395,
      "特": 4396,
      "牺": 4397,
      "犟": 4398,
      "犧": 4399,
      "犬": 4400,
      "犯": 4401,
      "状": 4402,
      "犹": 4403,
      "犽": 4404,
      "狀": 4405,
      "狂": 4406,
      "狄": 4407,
      "狐": 4408,
      "狗": 4409,
      "狙": 4410,
      "狠": 4411,
      "狡": 4412,
      "独": 4413,
      "狭": 4414,
      "狮": 4415,
      "狱": 4416,
      "狸": 4417,
      "狼": 4418,
      "猎": 4419,
      "猛": 4420,
      "猜": 4421,
      "猝": 4422,
      "猟": 4423,
      "猩": 4424,
      "猪": 4425,
      "猫": 4426,
      "献": 4427,
      "猴": 4428,
      "猶": 4429,
      "猺": 4430,
      "猾": 4431,
      "猿": 4432,
      "獎": 4433,
      "獒": 4434,
      "獣": 4435,
      "獨": 4436,
      "獲": 4437,
      "獺": 4438,
      "獻": 4439,
      "玄": 4440,
      "率": 4441,
      "玉": 4442,
      "王": 4443,
      "玖": 4444,
      "玛": 4445,
      "玥": 4446,
      "玩": 4447,
      "玫": 4448,
      "玮": 4449,
      "环": 4450,
      "现": 4451,
      "玲": 4452,
      "玻": 4453,
      "珀": 4454,
      "珊": 4455,
      "珍": 4456,
      "珏": 4457,
      "珠": 4458,
      "珩": 4459,
      "班": 4460,
      "現": 4461,
      "球": 4462,
      "理": 4463,
      "琍": 4464,
      "琐": 4465,
      "琛": 4466,
      "琢": 4467,
      "琦": 4468,
      "琨": 4469,
      "琪": 4470,
      "琯": 4471,
      "琳": 4472,
      "琴": 4473,
      "琶": 4474,
      "琼": 4475,
      "瑀": 4476,
      "瑋": 4477,
      "瑕": 4478,
      "瑙": 4479,
      "瑜": 4480,
      "瑞": 4481,
      "瑟": 4482,
      "瑰": 4483,
      "瑶": 4484,
      "瑾": 4485,
      "璀": 4486,
      "璃": 4487,
      "璇": 4488,
      "璋": 4489,
      "璐": 4490,
      "璘": 4491,
      "璞": 4492,
      "璧": 4493,
      "環": 4494,
      "璺": 4495,
      "瓜": 4496,
      "瓢": 4497,
      "瓣": 4498,
      "瓦": 4499,
      "瓶": 4500,
      "瓷": 4501,
      "甄": 4502,
      "甘": 4503,
      "甚": 4504,
      "甜": 4505,
      "生": 4506,
      "產": 4507,
      "産": 4508,
      "用": 4509,
      "甩": 4510,
      "甭": 4511,
      "田": 4512,
      "由": 4513,
      "甲": 4514,
      "申": 4515,
      "电": 4516,
      "男": 4517,
      "町": 4518,
      "画": 4519,
      "畀": 4520,
      "畅": 4521,
      "界": 4522,
      "畏": 4523,
      "畔": 4524,
      "留": 4525,
      "畜": 4526,
      "畠": 4527,
      "畢": 4528,
      "略": 4529,
      "番": 4530,
      "畫": 4531,
      "異": 4532,
      "畳": 4533,
      "畴": 4534,
      "當": 4535,
      "畸": 4536,
      "畿": 4537,
      "疆": 4538,
      "疇": 4539,
      "疎": 4540,
      "疏": 4541,
      "疑": 4542,
      "疗": 4543,
      "疝": 4544,
      "疟": 4545,
      "疡": 4546,
      "疤": 4547,
      "疫": 4548,
      "疯": 4549,
      "疱": 4550,
      "疲": 4551,
      "疵": 4552,
      "疸": 4553,
      "疹": 4554,
      "疼": 4555,
      "疽": 4556,
      "疾": 4557,
      "病": 4558,
      "症": 4559,
      "痊": 4560,
      "痒": 4561,
      "痕": 4562,
      "痘": 4563,
      "痛": 4564,
      "痞": 4565,
      "痢": 4566,
      "痫": 4567,
      "痰": 4568,
      "痴": 4569,
      "痹": 4570,
      "痺": 4571,
      "瘕": 4572,
      "瘙": 4573,
      "瘢": 4574,
      "瘤": 4575,
      "瘦": 4576,
      "瘫": 4577,
      "瘾": 4578,
      "療": 4579,
      "癌": 4580,
      "癖": 4581,
      "癣": 4582,
      "癥": 4583,
      "癫": 4584,
      "癬": 4585,
      "発": 4586,
      "登": 4587,
      "發": 4588,
      "白": 4589,
      "百": 4590,
      "的": 4591,
      "皆": 4592,
      "皇": 4593,
      "皋": 4594,
      "皓": 4595,
      "皙": 4596,
      "皮": 4597,
      "皱": 4598,
      "皳": 4599,
      "皺": 4600,
      "皿": 4601,
      "盃": 4602,
      "盆": 4603,
      "盈": 4604,
      "益": 4605,
      "盏": 4606,
      "盐": 4607,
      "监": 4608,
      "盒": 4609,
      "盔": 4610,
      "盖": 4611,
      "盗": 4612,
      "盘": 4613,
      "盛": 4614,
      "盟": 4615,
      "盡": 4616,
      "監": 4617,
      "盤": 4618,
      "盧": 4619,
      "盪": 4620,
      "目": 4621,
      "盯": 4622,
      "盲": 4623,
      "直": 4624,
      "相": 4625,
      "盼": 4626,
      "盾": 4627,
      "省": 4628,
      "眄": 4629,
      "眇": 4630,
      "眉": 4631,
      "看": 4632,
      "県": 4633,
      "真": 4634,
      "眠": 4635,
      "眨": 4636,
      "眯": 4637,
      "眺": 4638,
      "眼": 4639,
      "着": 4640,
      "睇": 4641,
      "睐": 4642,
      "睑": 4643,
      "睛": 4644,
      "睡": 4645,
      "督": 4646,
      "睦": 4647,
      "睫": 4648,
      "睹": 4649,
      "睾": 4650,
      "睿": 4651,
      "瞄": 4652,
      "瞎": 4653,
      "瞒": 4654,
      "瞧": 4655,
      "瞩": 4656,
      "瞬": 4657,
      "瞭": 4658,
      "瞳": 4659,
      "瞻": 4660,
      "矛": 4661,
      "矢": 4662,
      "矣": 4663,
      "知": 4664,
      "矩": 4665,
      "矫": 4666,
      "短": 4667,
      "矮": 4668,
      "石": 4669,
      "矶": 4670,
      "矿": 4671,
      "码": 4672,
      "砂": 4673,
      "砍": 4674,
      "研": 4675,
      "砕": 4676,
      "砖": 4677,
      "砭": 4678,
      "砲": 4679,
      "破": 4680,
      "砾": 4681,
      "础": 4682,
      "硅": 4683,
      "硕": 4684,
      "硝": 4685,
      "硫": 4686,
      "硬": 4687,
      "确": 4688,
      "碇": 4689,
      "碌": 4690,
      "碍": 4691,
      "碎": 4692,
      "碑": 4693,
      "碗": 4694,
      "碘": 4695,
      "碟": 4696,
      "碧": 4697,
      "碩": 4698,
      "碰": 4699,
      "碱": 4700,
      "碳": 4701,
      "確": 4702,
      "碼": 4703,
      "碾": 4704,
      "磁": 4705,
      "磅": 4706,
      "磊": 4707,
      "磨": 4708,
      "磬": 4709,
      "磺": 4710,
      "礁": 4711,
      "礎": 4712,
      "示": 4713,
      "礻": 4714,
      "礼": 4715,
      "社": 4716,
      "祈": 4717,
      "祎": 4718,
      "祐": 4719,
      "祖": 4720,
      "祛": 4721,
      "祝": 4722,
      "神": 4723,
      "祥": 4724,
      "票": 4725,
      "祯": 4726,
      "祸": 4727,
      "祺": 4728,
      "禀": 4729,
      "禁": 4730,
      "禅": 4731,
      "禍": 4732,
      "福": 4733,
      "禛": 4734,
      "禧": 4735,
      "禮": 4736,
      "禱": 4737,
      "禹": 4738,
      "离": 4739,
      "禽": 4740,
      "秀": 4741,
      "私": 4742,
      "秃": 4743,
      "秉": 4744,
      "秋": 4745,
      "种": 4746,
      "科": 4747,
      "秒": 4748,
      "秘": 4749,
      "租": 4750,
      "秦": 4751,
      "秩": 4752,
      "积": 4753,
      "称": 4754,
      "移": 4755,
      "稀": 4756,
      "程": 4757,
      "稍": 4758,
      "税": 4759,
      "稚": 4760,
      "稠": 4761,
      "種": 4762,
      "稱": 4763,
      "稲": 4764,
      "稳": 4765,
      "稻": 4766,
      "稼": 4767,
      "稽": 4768,
      "稿": 4769,
      "穂": 4770,
      "穆": 4771,
      "積": 4772,
      "穏": 4773,
      "穩": 4774,
      "穴": 4775,
      "究": 4776,
      "穷": 4777,
      "空": 4778,
      "穿": 4779,
      "突": 4780,
      "窃": 4781,
      "窄": 4782,
      "窍": 4783,
      "窓": 4784,
      "窗": 4785,
      "窘": 4786,
      "窝": 4787,
      "窟": 4788,
      "窥": 4789,
      "窯": 4790,
      "窶": 4791,
      "立": 4792,
      "竖": 4793,
      "站": 4794,
      "竜": 4795,
      "竞": 4796,
      "竟": 4797,
      "章": 4798,
      "竣": 4799,
      "童": 4800,
      "竭": 4801,
      "端": 4802,
      "競": 4803,
      "竹": 4804,
      "竺": 4805,
      "笈": 4806,
      "笉": 4807,
      "笑": 4808,
      "笔": 4809,
      "笙": 4810,
      "笛": 4811,
      "笞": 4812,
      "符": 4813,
      "笨": 4814,
      "第": 4815,
      "笼": 4816,
      "筆": 4817,
      "等": 4818,
      "筋": 4819,
      "筑": 4820,
      "筒": 4821,
      "答": 4822,
      "策": 4823,
      "筛": 4824,
      "筷": 4825,
      "筹": 4826,
      "签": 4827,
      "简": 4828,
      "箇": 4829,
      "箔": 4830,
      "箕": 4831,
      "算": 4832,
      "管": 4833,
      "箫": 4834,
      "箭": 4835,
      "箱": 4836,
      "箸": 4837,
      "節": 4838,
      "範": 4839,
      "篆": 4840,
      "篇": 4841,
      "築": 4842,
      "篓": 4843,
      "篡": 4844,
      "篤": 4845,
      "篮": 4846,
      "簇": 4847,
      "簡": 4848,
      "簧": 4849,
      "簿": 4850,
      "籁": 4851,
      "籍": 4852,
      "籤": 4853,
      "米": 4854,
      "类": 4855,
      "籾": 4856,
      "粉": 4857,
      "粋": 4858,
      "粒": 4859,
      "粗": 4860,
      "粘": 4861,
      "粛": 4862,
      "粟": 4863,
      "粧": 4864,
      "粪": 4865,
      "粮": 4866,
      "粱": 4867,
      "粹": 4868,
      "精": 4869,
      "糅": 4870,
      "糊": 4871,
      "糕": 4872,
      "糖": 4873,
      "糙": 4874,
      "糜": 4875,
      "糟": 4876,
      "糸": 4877,
      "系": 4878,
      "糾": 4879,
      "紀": 4880,
      "約": 4881,
      "紅": 4882,
      "紊": 4883,
      "紋": 4884,
      "納": 4885,
      "紐": 4886,
      "純": 4887,
      "紙": 4888,
      "級": 4889,
      "紛": 4890,
      "素": 4891,
      "紡": 4892,
      "索": 4893,
      "紧": 4894,
      "紫": 4895,
      "累": 4896,
      "細": 4897,
      "紲": 4898,
      "紳": 4899,
      "紹": 4900,
      "紺": 4901,
      "終": 4902,
      "組": 4903,
      "経": 4904,
      "結": 4905,
      "絕": 4906,
      "絞": 4907,
      "絡": 4908,
      "給": 4909,
      "統": 4910,
      "絲": 4911,
      "絵": 4912,
      "絶": 4913,
      "絹": 4914,
      "綍": 4915,
      "經": 4916,
      "継": 4917,
      "続": 4918,
      "綫": 4919,
      "維": 4920,
      "綱": 4921,
      "網": 4922,
      "綺": 4923,
      "綻": 4924,
      "綿": 4925,
      "緊": 4926,
      "総": 4927,
      "緑": 4928,
      "緒": 4929,
      "線": 4930,
      "締": 4931,
      "編": 4932,
      "緩": 4933,
      "緯": 4934,
      "練": 4935,
      "緻": 4936,
      "縁": 4937,
      "縄": 4938,
      "縛": 4939,
      "縞": 4940,
      "縣": 4941,
      "縦": 4942,
      "縫": 4943,
      "縮": 4944,
      "縱": 4945,
      "縺": 4946,
      "總": 4947,
      "績": 4948,
      "繁": 4949,
      "繊": 4950,
      "繋": 4951,
      "織": 4952,
      "繕": 4953,
      "繝": 4954,
      "繧": 4955,
      "繰": 4956,
      "繼": 4957,
      "纂": 4958,
      "續": 4959,
      "纠": 4960,
      "红": 4961,
      "纤": 4962,
      "约": 4963,
      "级": 4964,
      "纪": 4965,
      "纬": 4966,
      "纯": 4967,
      "纱": 4968,
      "纲": 4969,
      "纳": 4970,
      "纵": 4971,
      "纷": 4972,
      "纸": 4973,
      "纹": 4974,
      "纺": 4975,
      "纽": 4976,
      "纾": 4977,
      "线": 4978,
      "练": 4979,
      "组": 4980,
      "绅": 4981,
      "细": 4982,
      "织": 4983,
      "终": 4984,
      "绍": 4985,
      "绎": 4986,
      "经": 4987,
      "绑": 4988,
      "绒": 4989,
      "结": 4990,
      "绔": 4991,
      "绕": 4992,
      "绖": 4993,
      "绘": 4994,
      "给": 4995,
      "绛": 4996,
      "络": 4997,
      "绝": 4998,
      "绞": 4999,
      "统": 5000,
      "绣": 5001,
      "绥": 5002,
      "继": 5003,
      "绩": 5004,
      "绪": 5005,
      "绫": 5006,
      "续": 5007,
      "绰": 5008,
      "绳": 5009,
      "维": 5010,
      "绵": 5011,
      "绶": 5012,
      "综": 5013,
      "绿": 5014,
      "缀": 5015,
      "缂": 5016,
      "缓": 5017,
      "缔": 5018,
      "编": 5019,
      "缘": 5020,
      "缚": 5021,
      "缜": 5022,
      "缝": 5023,
      "缞": 5024,
      "缠": 5025,
      "缩": 5026,
      "缶": 5027,
      "缸": 5028,
      "缺": 5029,
      "罂": 5030,
      "罐": 5031,
      "网": 5032,
      "罕": 5033,
      "罗": 5034,
      "罚": 5035,
      "罡": 5036,
      "罢": 5037,
      "罩": 5038,
      "罪": 5039,
      "罫": 5040,
      "置": 5041,
      "罰": 5042,
      "署": 5043,
      "罵": 5044,
      "罷": 5045,
      "羁": 5046,
      "羃": 5047,
      "羅": 5048,
      "羊": 5049,
      "羌": 5050,
      "美": 5051,
      "羚": 5052,
      "羞": 5053,
      "羡": 5054,
      "群": 5055,
      "羨": 5056,
      "義": 5057,
      "羲": 5058,
      "羸": 5059,
      "羽": 5060,
      "羿": 5061,
      "翅": 5062,
      "翌": 5063,
      "翎": 5064,
      "習": 5065,
      "翔": 5066,
      "翕": 5067,
      "翰": 5068,
      "翻": 5069,
      "翼": 5070,
      "翾": 5071,
      "耀": 5072,
      "老": 5073,
      "考": 5074,
      "者": 5075,
      "而": 5076,
      "耍": 5077,
      "耐": 5078,
      "耒": 5079,
      "耕": 5080,
      "耗": 5081,
      "耦": 5082,
      "耨": 5083,
      "耳": 5084,
      "耶": 5085,
      "耻": 5086,
      "耿": 5087,
      "聆": 5088,
      "聊": 5089,
      "职": 5090,
      "联": 5091,
      "聖": 5092,
      "聘": 5093,
      "聚": 5094,
      "聞": 5095,
      "聡": 5096,
      "聣": 5097,
      "聪": 5098,
      "聮": 5099,
      "聯": 5100,
      "聲": 5101,
      "聴": 5102,
      "職": 5103,
      "聽": 5104,
      "肃": 5105,
      "肄": 5106,
      "肇": 5107,
      "肉": 5108,
      "肋": 5109,
      "肌": 5110,
      "肖": 5111,
      "肘": 5112,
      "肚": 5113,
      "肛": 5114,
      "肝": 5115,
      "肟": 5116,
      "肠": 5117,
      "股": 5118,
      "肢": 5119,
      "肤": 5120,
      "肥": 5121,
      "肩": 5122,
      "肪": 5123,
      "肮": 5124,
      "肯": 5125,
      "育": 5126,
      "肴": 5127,
      "肺": 5128,
      "肾": 5129,
      "肿": 5130,
      "胀": 5131,
      "胁": 5132,
      "胃": 5133,
      "胆": 5134,
      "背": 5135,
      "胍": 5136,
      "胎": 5137,
      "胖": 5138,
      "胚": 5139,
      "胜": 5140,
      "胝": 5141,
      "胞": 5142,
      "胡": 5143,
      "胤": 5144,
      "胥": 5145,
      "胰": 5146,
      "胳": 5147,
      "胴": 5148,
      "胶": 5149,
      "胸": 5150,
      "胺": 5151,
      "胼": 5152,
      "能": 5153,
      "脂": 5154,
      "脅": 5155,
      "脆": 5156,
      "脇": 5157,
      "脈": 5158,
      "脉": 5159,
      "脊": 5160,
      "脍": 5161,
      "脏": 5162,
      "脐": 5163,
      "脑": 5164,
      "脓": 5165,
      "脖": 5166,
      "脗": 5167,
      "脙": 5168,
      "脚": 5169,
      "脛": 5170,
      "脟": 5171,
      "脠": 5172,
      "脢": 5173,
      "脧": 5174,
      "脰": 5175,
      "脱": 5176,
      "脳": 5177,
      "脸": 5178,
      "脽": 5179,
      "脾": 5180,
      "腊": 5181,
      "腎": 5182,
      "腐": 5183,
      "腑": 5184,
      "腓": 5185,
      "腔": 5186,
      "腕": 5187,
      "腥": 5188,
      "腦": 5189,
      "腫": 5190,
      "腮": 5191,
      "腰": 5192,
      "腳": 5193,
      "腹": 5194,
      "腺": 5195,
      "腻": 5196,
      "腾": 5197,
      "腿": 5198,
      "膀": 5199,
      "膊": 5200,
      "膏": 5201,
      "膚": 5202,
      "膜": 5203,
      "膝": 5204,
      "膨": 5205,
      "膳": 5206,
      "臀": 5207,
      "臂": 5208,
      "臃": 5209,
      "臆": 5210,
      "臓": 5211,
      "臟": 5212,
      "臣": 5213,
      "臧": 5214,
      "臨": 5215,
      "自": 5216,
      "臭": 5217,
      "至": 5218,
      "致": 5219,
      "臺": 5220,
      "臼": 5221,
      "舆": 5222,
      "與": 5223,
      "興": 5224,
      "舉": 5225,
      "舊": 5226,
      "舌": 5227,
      "舍": 5228,
      "舒": 5229,
      "舗": 5230,
      "舜": 5231,
      "舞": 5232,
      "舟": 5233,
      "航": 5234,
      "般": 5235,
      "舰": 5236,
      "舱": 5237,
      "舵": 5238,
      "舶": 5239,
      "舷": 5240,
      "船": 5241,
      "艇": 5242,
      "艉": 5243,
      "艏": 5244,
      "艘": 5245,
      "艦": 5246,
      "良": 5247,
      "艰": 5248,
      "色": 5249,
      "艳": 5250,
      "艹": 5251,
      "艺": 5252,
      "艾": 5253,
      "节": 5254,
      "芍": 5255,
      "芎": 5256,
      "芒": 5257,
      "芙": 5258,
      "芜": 5259,
      "芝": 5260,
      "芥": 5261,
      "芦": 5262,
      "芩": 5263,
      "芬": 5264,
      "芭": 5265,
      "芯": 5266,
      "花": 5267,
      "芳": 5268,
      "芸": 5269,
      "芹": 5270,
      "芽": 5271,
      "苇": 5272,
      "苍": 5273,
      "苏": 5274,
      "苑": 5275,
      "苓": 5276,
      "苔": 5277,
      "苗": 5278,
      "苛": 5279,
      "苟": 5280,
      "若": 5281,
      "苦": 5282,
      "苫": 5283,
      "苯": 5284,
      "英": 5285,
      "苴": 5286,
      "苷": 5287,
      "苹": 5288,
      "茁": 5289,
      "茂": 5290,
      "范": 5291,
      "茄": 5292,
      "茅": 5293,
      "茉": 5294,
      "茎": 5295,
      "茜": 5296,
      "茧": 5297,
      "茨": 5298,
      "茫": 5299,
      "茬": 5300,
      "茯": 5301,
      "茱": 5302,
      "茳": 5303,
      "茵": 5304,
      "茶": 5305,
      "茸": 5306,
      "茹": 5307,
      "荆": 5308,
      "草": 5309,
      "荐": 5310,
      "荒": 5311,
      "荔": 5312,
      "荘": 5313,
      "荟": 5314,
      "荡": 5315,
      "荣": 5316,
      "荦": 5317,
      "荧": 5318,
      "荫": 5319,
      "药": 5320,
      "荷": 5321,
      "荼": 5322,
      "莉": 5323,
      "莎": 5324,
      "莓": 5325,
      "莫": 5326,
      "莱": 5327,
      "莲": 5328,
      "获": 5329,
      "莹": 5330,
      "莺": 5331,
      "菁": 5332,
      "菅": 5333,
      "菊": 5334,
      "菌": 5335,
      "菓": 5336,
      "菔": 5337,
      "菜": 5338,
      "菠": 5339,
      "菩": 5340,
      "華": 5341,
      "菱": 5342,
      "菲": 5343,
      "菴": 5344,
      "萃": 5345,
      "萄": 5346,
      "萌": 5347,
      "萎": 5348,
      "萝": 5349,
      "营": 5350,
      "萧": 5351,
      "萨": 5352,
      "萬": 5353,
      "萱": 5354,
      "萸": 5355,
      "落": 5356,
      "葉": 5357,
      "著": 5358,
      "葛": 5359,
      "葡": 5360,
      "董": 5361,
      "葩": 5362,
      "葬": 5363,
      "葭": 5364,
      "葱": 5365,
      "葵": 5366,
      "蒂": 5367,
      "蒋": 5368,
      "蒙": 5369,
      "蒜": 5370,
      "蒲": 5371,
      "蒸": 5372,
      "蓁": 5373,
      "蓄": 5374,
      "蓉": 5375,
      "蓋": 5376,
      "蓝": 5377,
      "蓟": 5378,
      "蓬": 5379,
      "蓮": 5380,
      "蔑": 5381,
      "蔓": 5382,
      "蔚": 5383,
      "蔡": 5384,
      "蔬": 5385,
      "蔵": 5386,
      "蔷": 5387,
      "蔽": 5388,
      "蕃": 5389,
      "蕉": 5390,
      "蕊": 5391,
      "蕩": 5392,
      "蕴": 5393,
      "蕾": 5394,
      "薄": 5395,
      "薇": 5396,
      "薙": 5397,
      "薛": 5398,
      "薦": 5399,
      "薨": 5400,
      "薪": 5401,
      "薬": 5402,
      "藉": 5403,
      "藍": 5404,
      "藏": 5405,
      "藐": 5406,
      "藓": 5407,
      "藕": 5408,
      "藛": 5409,
      "藤": 5410,
      "藥": 5411,
      "藩": 5412,
      "藹": 5413,
      "藻": 5414,
      "虎": 5415,
      "虐": 5416,
      "虑": 5417,
      "處": 5418,
      "虚": 5419,
      "虛": 5420,
      "虜": 5421,
      "虞": 5422,
      "號": 5423,
      "虫": 5424,
      "虱": 5425,
      "虹": 5426,
      "虽": 5427,
      "虾": 5428,
      "蚀": 5429,
      "蚁": 5430,
      "蚂": 5431,
      "蚊": 5432,
      "蚓": 5433,
      "蚕": 5434,
      "蚣": 5435,
      "蚱": 5436,
      "蛇": 5437,
      "蛋": 5438,
      "蛍": 5439,
      "蛎": 5440,
      "蛙": 5441,
      "蛛": 5442,
      "蛮": 5443,
      "蜀": 5444,
      "蜂": 5445,
      "蜗": 5446,
      "蜘": 5447,
      "蜚": 5448,
      "蜜": 5449,
      "蜡": 5450,
      "蜥": 5451,
      "蜴": 5452,
      "蝕": 5453,
      "蝙": 5454,
      "蝠": 5455,
      "蝦": 5456,
      "蝴": 5457,
      "蝶": 5458,
      "螂": 5459,
      "螃": 5460,
      "融": 5461,
      "螟": 5462,
      "螺": 5463,
      "蟀": 5464,
      "蟑": 5465,
      "蟹": 5466,
      "蠑": 5467,
      "蠢": 5468,
      "蠻": 5469,
      "血": 5470,
      "衆": 5471,
      "行": 5472,
      "衍": 5473,
      "術": 5474,
      "衔": 5475,
      "街": 5476,
      "衛": 5477,
      "衝": 5478,
      "衡": 5479,
      "衢": 5480,
      "衣": 5481,
      "衤": 5482,
      "补": 5483,
      "表": 5484,
      "衫": 5485,
      "衬": 5486,
      "衰": 5487,
      "衷": 5488,
      "衿": 5489,
      "袁": 5490,
      "袂": 5491,
      "袋": 5492,
      "袍": 5493,
      "袒": 5494,
      "袖": 5495,
      "袜": 5496,
      "被": 5497,
      "袭": 5498,
      "裁": 5499,
      "裂": 5500,
      "装": 5501,
      "裏": 5502,
      "裔": 5503,
      "裕": 5504,
      "裘": 5505,
      "裙": 5506,
      "補": 5507,
      "裝": 5508,
      "裡": 5509,
      "裤": 5510,
      "裨": 5511,
      "裱": 5512,
      "裸": 5513,
      "裹": 5514,
      "製": 5515,
      "褄": 5516,
      "複": 5517,
      "褐": 5518,
      "褒": 5519,
      "褥": 5520,
      "褲": 5521,
      "褶": 5522,
      "襉": 5523,
      "襌": 5524,
      "襛": 5525,
      "襠": 5526,
      "襡": 5527,
      "襣": 5528,
      "襲": 5529,
      "西": 5530,
      "要": 5531,
      "覆": 5532,
      "見": 5533,
      "規": 5534,
      "視": 5535,
      "覚": 5536,
      "覧": 5537,
      "親": 5538,
      "覬": 5539,
      "観": 5540,
      "覺": 5541,
      "觀": 5542,
      "见": 5543,
      "观": 5544,
      "规": 5545,
      "视": 5546,
      "览": 5547,
      "觉": 5548,
      "觊": 5549,
      "觎": 5550,
      "角": 5551,
      "解": 5552,
      "触": 5553,
      "言": 5554,
      "訂": 5555,
      "訃": 5556,
      "計": 5557,
      "訊": 5558,
      "討": 5559,
      "訓": 5560,
      "託": 5561,
      "記": 5562,
      "訟": 5563,
      "訪": 5564,
      "設": 5565,
      "許": 5566,
      "訳": 5567,
      "訴": 5568,
      "診": 5569,
      "註": 5570,
      "証": 5571,
      "詔": 5572,
      "評": 5573,
      "詞": 5574,
      "詠": 5575,
      "詢": 5576,
      "詣": 5577,
      "試": 5578,
      "詰": 5579,
      "話": 5580,
      "該": 5581,
      "詳": 5582,
      "詹": 5583,
      "誂": 5584,
      "誇": 5585,
      "誉": 5586,
      "誌": 5587,
      "認": 5588,
      "誓": 5589,
      "誕": 5590,
      "誘": 5591,
      "語": 5592,
      "誠": 5593,
      "誣": 5594,
      "誤": 5595,
      "說": 5596,
      "説": 5597,
      "読": 5598,
      "誰": 5599,
      "課": 5600,
      "調": 5601,
      "談": 5602,
      "請": 5603,
      "論": 5604,
      "諦": 5605,
      "諭": 5606,
      "諸": 5607,
      "諺": 5608,
      "諾": 5609,
      "謄": 5610,
      "謇": 5611,
      "謎": 5612,
      "謙": 5613,
      "講": 5614,
      "謝": 5615,
      "謹": 5616,
      "證": 5617,
      "識": 5618,
      "譚": 5619,
      "譛": 5620,
      "譜": 5621,
      "警": 5622,
      "譬": 5623,
      "譯": 5624,
      "議": 5625,
      "譲": 5626,
      "護": 5627,
      "讀": 5628,
      "變": 5629,
      "讓": 5630,
      "计": 5631,
      "订": 5632,
      "认": 5633,
      "讨": 5634,
      "让": 5635,
      "训": 5636,
      "议": 5637,
      "讯": 5638,
      "记": 5639,
      "讲": 5640,
      "讳": 5641,
      "讶": 5642,
      "许": 5643,
      "讹": 5644,
      "论": 5645,
      "讼": 5646,
      "讽": 5647,
      "设": 5648,
      "访": 5649,
      "诀": 5650,
      "证": 5651,
      "评": 5652,
      "诅": 5653,
      "识": 5654,
      "诈": 5655,
      "诉": 5656,
      "诊": 5657,
      "词": 5658,
      "诏": 5659,
      "译": 5660,
      "试": 5661,
      "诗": 5662,
      "诚": 5663,
      "诛": 5664,
      "话": 5665,
      "诞": 5666,
      "诟": 5667,
      "诠": 5668,
      "诡": 5669,
      "询": 5670,
      "诣": 5671,
      "该": 5672,
      "详": 5673,
      "诧": 5674,
      "诬": 5675,
      "语": 5676,
      "误": 5677,
      "诰": 5678,
      "诱": 5679,
      "说": 5680,
      "诶": 5681,
      "请": 5682,
      "诸": 5683,
      "诺": 5684,
      "读": 5685,
      "课": 5686,
      "谁": 5687,
      "调": 5688,
      "谄": 5689,
      "谅": 5690,
      "谇": 5691,
      "谈": 5692,
      "谋": 5693,
      "谍": 5694,
      "谎": 5695,
      "谏": 5696,
      "谐": 5697,
      "谓": 5698,
      "谔": 5699,
      "谕": 5700,
      "谜": 5701,
      "谢": 5702,
      "谣": 5703,
      "谥": 5704,
      "谦": 5705,
      "谨": 5706,
      "谩": 5707,
      "谭": 5708,
      "谱": 5709,
      "谴": 5710,
      "谷": 5711,
      "豁": 5712,
      "豆": 5713,
      "豊": 5714,
      "豕": 5715,
      "豚": 5716,
      "象": 5717,
      "豪": 5718,
      "豫": 5719,
      "豹": 5720,
      "貂": 5721,
      "貅": 5722,
      "貌": 5723,
      "貔": 5724,
      "貝": 5725,
      "貞": 5726,
      "負": 5727,
      "財": 5728,
      "貢": 5729,
      "貧": 5730,
      "貨": 5731,
      "販": 5732,
      "貪": 5733,
      "貫": 5734,
      "責": 5735,
      "貯": 5736,
      "貰": 5737,
      "貴": 5738,
      "貶": 5739,
      "買": 5740,
      "貸": 5741,
      "費": 5742,
      "貼": 5743,
      "貿": 5744,
      "賀": 5745,
      "賂": 5746,
      "賃": 5747,
      "賄": 5748,
      "資": 5749,
      "賊": 5750,
      "賓": 5751,
      "賛": 5752,
      "賜": 5753,
      "賞": 5754,
      "賠": 5755,
      "賢": 5756,
      "質": 5757,
      "賭": 5758,
      "賴": 5759,
      "賺": 5760,
      "購": 5761,
      "贈": 5762,
      "贊": 5763,
      "贏": 5764,
      "贔": 5765,
      "贝": 5766,
      "贞": 5767,
      "负": 5768,
      "贡": 5769,
      "财": 5770,
      "责": 5771,
      "贤": 5772,
      "败": 5773,
      "账": 5774,
      "货": 5775,
      "质": 5776,
      "贩": 5777,
      "贪": 5778,
      "贫": 5779,
      "贬": 5780,
      "购": 5781,
      "贯": 5782,
      "贱": 5783,
      "贴": 5784,
      "贵": 5785,
      "贷": 5786,
      "贸": 5787,
      "费": 5788,
      "贺": 5789,
      "贻": 5790,
      "贼": 5791,
      "贾": 5792,
      "赁": 5793,
      "赃": 5794,
      "资": 5795,
      "赅": 5796,
      "赈": 5797,
      "赋": 5798,
      "赌": 5799,
      "赎": 5800,
      "赏": 5801,
      "赐": 5802,
      "赔": 5803,
      "赖": 5804,
      "赘": 5805,
      "赚": 5806,
      "赛": 5807,
      "赞": 5808,
      "赠": 5809,
      "赢": 5810,
      "赤": 5811,
      "赦": 5812,
      "赫": 5813,
      "走": 5814,
      "赴": 5815,
      "赵": 5816,
      "赶": 5817,
      "起": 5818,
      "趁": 5819,
      "超": 5820,
      "越": 5821,
      "趋": 5822,
      "趙": 5823,
      "趟": 5824,
      "趣": 5825,
      "足": 5826,
      "跃": 5827,
      "跌": 5828,
      "跑": 5829,
      "距": 5830,
      "跟": 5831,
      "跡": 5832,
      "跤": 5833,
      "跨": 5834,
      "路": 5835,
      "跳": 5836,
      "践": 5837,
      "跷": 5838,
      "踊": 5839,
      "踏": 5840,
      "踝": 5841,
      "踩": 5842,
      "踪": 5843,
      "蹀": 5844,
      "蹄": 5845,
      "蹈": 5846,
      "蹛": 5847,
      "蹦": 5848,
      "蹭": 5849,
      "蹲": 5850,
      "蹶": 5851,
      "躁": 5852,
      "躍": 5853,
      "身": 5854,
      "躬": 5855,
      "躲": 5856,
      "躺": 5857,
      "車": 5858,
      "軌": 5859,
      "軍": 5860,
      "軒": 5861,
      "軟": 5862,
      "転": 5863,
      "軸": 5864,
      "軽": 5865,
      "較": 5866,
      "載": 5867,
      "輔": 5868,
      "輕": 5869,
      "輝": 5870,
      "輩": 5871,
      "輪": 5872,
      "輯": 5873,
      "輸": 5874,
      "轄": 5875,
      "轉": 5876,
      "车": 5877,
      "轧": 5878,
      "轨": 5879,
      "轩": 5880,
      "转": 5881,
      "轭": 5882,
      "轮": 5883,
      "软": 5884,
      "轲": 5885,
      "轴": 5886,
      "轶": 5887,
      "轻": 5888,
      "轼": 5889,
      "载": 5890,
      "较": 5891,
      "辄": 5892,
      "辅": 5893,
      "辆": 5894,
      "辈": 5895,
      "辉": 5896,
      "辐": 5897,
      "辑": 5898,
      "输": 5899,
      "辕": 5900,
      "辖": 5901,
      "辛": 5902,
      "辜": 5903,
      "辞": 5904,
      "辟": 5905,
      "辣": 5906,
      "辦": 5907,
      "辨": 5908,
      "辩": 5909,
      "辭": 5910,
      "辰": 5911,
      "辱": 5912,
      "農": 5913,
      "边": 5914,
      "辺": 5915,
      "辻": 5916,
      "込": 5917,
      "辽": 5918,
      "达": 5919,
      "辿": 5920,
      "迁": 5921,
      "迄": 5922,
      "迅": 5923,
      "迆": 5924,
      "过": 5925,
      "迈": 5926,
      "迎": 5927,
      "运": 5928,
      "近": 5929,
      "返": 5930,
      "还": 5931,
      "这": 5932,
      "进": 5933,
      "远": 5934,
      "违": 5935,
      "连": 5936,
      "迟": 5937,
      "迥": 5938,
      "迦": 5939,
      "迪": 5940,
      "迫": 5941,
      "迭": 5942,
      "述": 5943,
      "迷": 5944,
      "迹": 5945,
      "追": 5946,
      "退": 5947,
      "送": 5948,
      "适": 5949,
      "逃": 5950,
      "逆": 5951,
      "选": 5952,
      "逊": 5953,
      "逍": 5954,
      "透": 5955,
      "逐": 5956,
      "递": 5957,
      "逓": 5958,
      "途": 5959,
      "逗": 5960,
      "這": 5961,
      "通": 5962,
      "逝": 5963,
      "速": 5964,
      "造": 5965,
      "逢": 5966,
      "連": 5967,
      "逮": 5968,
      "週": 5969,
      "進": 5970,
      "逸": 5971,
      "逻": 5972,
      "逼": 5973,
      "逾": 5974,
      "遂": 5975,
      "遅": 5976,
      "遇": 5977,
      "遊": 5978,
      "運": 5979,
      "遍": 5980,
      "過": 5981,
      "遏": 5982,
      "遐": 5983,
      "道": 5984,
      "達": 5985,
      "違": 5986,
      "遗": 5987,
      "遛": 5988,
      "遞": 5989,
      "遠": 5990,
      "遡": 5991,
      "遣": 5992,
      "遥": 5993,
      "適": 5994,
      "遭": 5995,
      "遮": 5996,
      "遵": 5997,
      "遷": 5998,
      "選": 5999,
      "遺": 6000,
      "避": 6001,
      "邀": 6002,
      "還": 6003,
      "邉": 6004,
      "邊": 6005,
      "邏": 6006,
      "邓": 6007,
      "邢": 6008,
      "那": 6009,
      "邦": 6010,
      "邪": 6011,
      "邮": 6012,
      "邱": 6013,
      "邵": 6014,
      "邸": 6015,
      "邹": 6016,
      "邻": 6017,
      "郁": 6018,
      "郊": 6019,
      "郎": 6020,
      "郑": 6021,
      "郝": 6022,
      "郞": 6023,
      "郦": 6024,
      "部": 6025,
      "郭": 6026,
      "郵": 6027,
      "都": 6028,
      "鄂": 6029,
      "鄭": 6030,
      "酉": 6031,
      "酌": 6032,
      "配": 6033,
      "酎": 6034,
      "酒": 6035,
      "酔": 6036,
      "酗": 6037,
      "酝": 6038,
      "酢": 6039,
      "酥": 6040,
      "酪": 6041,
      "酬": 6042,
      "酯": 6043,
      "酰": 6044,
      "酱": 6045,
      "酵": 6046,
      "酶": 6047,
      "酷": 6048,
      "酸": 6049,
      "酿": 6050,
      "醇": 6051,
      "醉": 6052,
      "醋": 6053,
      "醒": 6054,
      "醜": 6055,
      "醫": 6056,
      "醬": 6057,
      "醸": 6058,
      "釁": 6059,
      "采": 6060,
      "釈": 6061,
      "释": 6062,
      "釋": 6063,
      "里": 6064,
      "重": 6065,
      "野": 6066,
      "量": 6067,
      "金": 6068,
      "針": 6069,
      "釣": 6070,
      "鈞": 6071,
      "鈥": 6072,
      "鈴": 6073,
      "鈺": 6074,
      "鉄": 6075,
      "鉛": 6076,
      "鉱": 6077,
      "鉴": 6078,
      "銀": 6079,
      "銅": 6080,
      "銆": 6081,
      "銘": 6082,
      "銭": 6083,
      "銷": 6084,
      "鋐": 6085,
      "鋒": 6086,
      "鋭": 6087,
      "鋲": 6088,
      "鋼": 6089,
      "錄": 6090,
      "錠": 6091,
      "錢": 6092,
      "錦": 6093,
      "錫": 6094,
      "錬": 6095,
      "錮": 6096,
      "錯": 6097,
      "録": 6098,
      "鍊": 6099,
      "鍋": 6100,
      "鍏": 6101,
      "鍙": 6102,
      "鍚": 6103,
      "鍛": 6104,
      "鍵": 6105,
      "鍾": 6106,
      "鎌": 6107,
      "鎖": 6108,
      "鏂": 6109,
      "鏡": 6110,
      "鐃": 6111,
      "鐔": 6112,
      "鐘": 6113,
      "鑑": 6114,
      "鑫": 6115,
      "钅": 6116,
      "针": 6117,
      "钊": 6118,
      "钓": 6119,
      "钙": 6120,
      "钟": 6121,
      "钠": 6122,
      "钢": 6123,
      "钥": 6124,
      "钧": 6125,
      "钩": 6126,
      "钫": 6127,
      "钮": 6128,
      "钰": 6129,
      "钱": 6130,
      "钳": 6131,
      "钻": 6132,
      "钾": 6133,
      "钿": 6134,
      "铁": 6135,
      "铂": 6136,
      "铃": 6137,
      "铅": 6138,
      "铆": 6139,
      "铌": 6140,
      "铎": 6141,
      "铖": 6142,
      "铜": 6143,
      "铝": 6144,
      "铬": 6145,
      "铭": 6146,
      "铮": 6147,
      "铲": 6148,
      "银": 6149,
      "铸": 6150,
      "铺": 6151,
      "铼": 6152,
      "链": 6153,
      "铿": 6154,
      "销": 6155,
      "锁": 6156,
      "锂": 6157,
      "锅": 6158,
      "锈": 6159,
      "锋": 6160,
      "锌": 6161,
      "锐": 6162,
      "错": 6163,
      "锚": 6164,
      "锛": 6165,
      "锟": 6166,
      "锡": 6167,
      "锤": 6168,
      "锥": 6169,
      "锦": 6170,
      "键": 6171,
      "锯": 6172,
      "锴": 6173,
      "锻": 6174,
      "镀": 6175,
      "镁": 6176,
      "镂": 6177,
      "镇": 6178,
      "镐": 6179,
      "镖": 6180,
      "镛": 6181,
      "镜": 6182,
      "镧": 6183,
      "長": 6184,
      "长": 6185,
      "門": 6186,
      "閃": 6187,
      "閉": 6188,
      "開": 6189,
      "閑": 6190,
      "間": 6191,
      "関": 6192,
      "閣": 6193,
      "閥": 6194,
      "閩": 6195,
      "閲": 6196,
      "閾": 6197,
      "闄": 6198,
      "闆": 6199,
      "闇": 6200,
      "闘": 6201,
      "關": 6202,
      "门": 6203,
      "闪": 6204,
      "闫": 6205,
      "闭": 6206,
      "问": 6207,
      "闯": 6208,
      "闲": 6209,
      "间": 6210,
      "闵": 6211,
      "闷": 6212,
      "闹": 6213,
      "闻": 6214,
      "阁": 6215,
      "阂": 6216,
      "阅": 6217,
      "阈": 6218,
      "阉": 6219,
      "阐": 6220,
      "阔": 6221,
      "阙": 6222,
      "队": 6223,
      "阪": 6224,
      "阮": 6225,
      "阱": 6226,
      "防": 6227,
      "阳": 6228,
      "阴": 6229,
      "阵": 6230,
      "阶": 6231,
      "阻": 6232,
      "阿": 6233,
      "陀": 6234,
      "陂": 6235,
      "附": 6236,
      "际": 6237,
      "陆": 6238,
      "陈": 6239,
      "陋": 6240,
      "陌": 6241,
      "降": 6242,
      "限": 6243,
      "陕": 6244,
      "陞": 6245,
      "陡": 6246,
      "院": 6247,
      "陣": 6248,
      "除": 6249,
      "陥": 6250,
      "险": 6251,
      "陪": 6252,
      "陰": 6253,
      "陳": 6254,
      "陵": 6255,
      "陶": 6256,
      "陷": 6257,
      "陸": 6258,
      "険": 6259,
      "陽": 6260,
      "隅": 6261,
      "隆": 6262,
      "隊": 6263,
      "階": 6264,
      "随": 6265,
      "隐": 6266,
      "隔": 6267,
      "隙": 6268,
      "際": 6269,
      "障": 6270,
      "隠": 6271,
      "隣": 6272,
      "隧": 6273,
      "隨": 6274,
      "險": 6275,
      "隱": 6276,
      "隶": 6277,
      "隷": 6278,
      "难": 6279,
      "雀": 6280,
      "雁": 6281,
      "雄": 6282,
      "雅": 6283,
      "集": 6284,
      "雇": 6285,
      "雉": 6286,
      "雌": 6287,
      "雍": 6288,
      "雏": 6289,
      "雑": 6290,
      "雕": 6291,
      "雖": 6292,
      "雙": 6293,
      "雜": 6294,
      "離": 6295,
      "難": 6296,
      "雨": 6297,
      "雪": 6298,
      "雯": 6299,
      "雰": 6300,
      "雲": 6301,
      "零": 6302,
      "雷": 6303,
      "雹": 6304,
      "電": 6305,
      "雾": 6306,
      "需": 6307,
      "霁": 6308,
      "霆": 6309,
      "震": 6310,
      "霈": 6311,
      "霉": 6312,
      "霊": 6313,
      "霍": 6314,
      "霏": 6315,
      "霓": 6316,
      "霖": 6317,
      "霜": 6318,
      "霞": 6319,
      "霧": 6320,
      "露": 6321,
      "霸": 6322,
      "霾": 6323,
      "青": 6324,
      "靖": 6325,
      "静": 6326,
      "非": 6327,
      "靠": 6328,
      "靡": 6329,
      "面": 6330,
      "革": 6331,
      "靭": 6332,
      "靴": 6333,
      "靶": 6334,
      "鞅": 6335,
      "鞋": 6336,
      "鞍": 6337,
      "鞠": 6338,
      "鞨": 6339,
      "鞭": 6340,
      "鞴": 6341,
      "鞿": 6342,
      "韋": 6343,
      "韓": 6344,
      "韜": 6345,
      "韦": 6346,
      "韧": 6347,
      "韩": 6348,
      "韬": 6349,
      "韭": 6350,
      "音": 6351,
      "韵": 6352,
      "韶": 6353,
      "韻": 6354,
      "響": 6355,
      "頁": 6356,
      "頂": 6357,
      "頃": 6358,
      "項": 6359,
      "順": 6360,
      "須": 6361,
      "頌": 6362,
      "預": 6363,
      "頑": 6364,
      "頒": 6365,
      "頓": 6366,
      "領": 6367,
      "頡": 6368,
      "頭": 6369,
      "頸": 6370,
      "頻": 6371,
      "頼": 6372,
      "顆": 6373,
      "題": 6374,
      "額": 6375,
      "顔": 6376,
      "顕": 6377,
      "願": 6378,
      "類": 6379,
      "顧": 6380,
      "顯": 6381,
      "页": 6382,
      "顶": 6383,
      "项": 6384,
      "顺": 6385,
      "须": 6386,
      "顾": 6387,
      "顿": 6388,
      "颂": 6389,
      "预": 6390,
      "颅": 6391,
      "领": 6392,
      "颇": 6393,
      "颈": 6394,
      "颊": 6395,
      "颌": 6396,
      "颐": 6397,
      "频": 6398,
      "颖": 6399,
      "颗": 6400,
      "题": 6401,
      "颜": 6402,
      "额": 6403,
      "颞": 6404,
      "颠": 6405,
      "颤": 6406,
      "颧": 6407,
      "風": 6408,
      "颱": 6409,
      "风": 6410,
      "飘": 6411,
      "飙": 6412,
      "飛": 6413,
      "飞": 6414,
      "食": 6415,
      "飢": 6416,
      "飨": 6417,
      "飯": 6418,
      "飲": 6419,
      "飼": 6420,
      "飽": 6421,
      "飾": 6422,
      "養": 6423,
      "餌": 6424,
      "餐": 6425,
      "餓": 6426,
      "餘": 6427,
      "餡": 6428,
      "館": 6429,
      "饒": 6430,
      "饥": 6431,
      "饭": 6432,
      "饮": 6433,
      "饰": 6434,
      "饱": 6435,
      "饲": 6436,
      "饵": 6437,
      "饼": 6438,
      "饿": 6439,
      "馅": 6440,
      "馆": 6441,
      "馈": 6442,
      "馏": 6443,
      "馑": 6444,
      "首": 6445,
      "香": 6446,
      "馨": 6447,
      "馬": 6448,
      "馮": 6449,
      "駄": 6450,
      "駅": 6451,
      "駆": 6452,
      "駐": 6453,
      "駒": 6454,
      "駕": 6455,
      "駛": 6456,
      "駿": 6457,
      "騎": 6458,
      "騒": 6459,
      "験": 6460,
      "騰": 6461,
      "驗": 6462,
      "驚": 6463,
      "驛": 6464,
      "驟": 6465,
      "马": 6466,
      "驯": 6467,
      "驰": 6468,
      "驱": 6469,
      "驳": 6470,
      "驴": 6471,
      "驶": 6472,
      "驻": 6473,
      "驼": 6474,
      "驾": 6475,
      "骂": 6476,
      "骄": 6477,
      "骆": 6478,
      "骋": 6479,
      "验": 6480,
      "骏": 6481,
      "骑": 6482,
      "骗": 6483,
      "骚": 6484,
      "骢": 6485,
      "骤": 6486,
      "骨": 6487,
      "骸": 6488,
      "骼": 6489,
      "髂": 6490,
      "髄": 6491,
      "髋": 6492,
      "髓": 6493,
      "體": 6494,
      "高": 6495,
      "髦": 6496,
      "髭": 6497,
      "鬆": 6498,
      "鬓": 6499,
      "鬥": 6500,
      "鬱": 6501,
      "鬻": 6502,
      "鬼": 6503,
      "魁": 6504,
      "魂": 6505,
      "魅": 6506,
      "魏": 6507,
      "魔": 6508,
      "魚": 6509,
      "鮮": 6510,
      "鱼": 6511,
      "鲁": 6512,
      "鲍": 6513,
      "鲜": 6514,
      "鲨": 6515,
      "鲸": 6516,
      "鲹": 6517,
      "鳞": 6518,
      "鳥": 6519,
      "鳳": 6520,
      "鳴": 6521,
      "鴉": 6522,
      "鴨": 6523,
      "鴻": 6524,
      "鵜": 6525,
      "鶏": 6526,
      "鶴": 6527,
      "鸟": 6528,
      "鸡": 6529,
      "鸣": 6530,
      "鸥": 6531,
      "鸦": 6532,
      "鸭": 6533,
      "鸿": 6534,
      "鹃": 6535,
      "鹅": 6536,
      "鹉": 6537,
      "鹊": 6538,
      "鹌": 6539,
      "鹏": 6540,
      "鹑": 6541,
      "鹤": 6542,
      "鹦": 6543,
      "鹬": 6544,
      "鹰": 6545,
      "鹿": 6546,
      "麓": 6547,
      "麗": 6548,
      "麟": 6549,
      "麦": 6550,
      "麴": 6551,
      "麻": 6552,
      "麼": 6553,
      "黃": 6554,
      "黄": 6555,
      "黎": 6556,
      "黏": 6557,
      "黑": 6558,
      "黒": 6559,
      "默": 6560,
      "黙": 6561,
      "黛": 6562,
      "點": 6563,
      "黯": 6564,
      "黻": 6565,
      "鼎": 6566,
      "鼓": 6567,
      "鼠": 6568,
      "鼻": 6569,
      "齊": 6570,
      "齋": 6571,
      "齐": 6572,
      "齟": 6573,
      "齡": 6574,
      "齢": 6575,
      "齬": 6576,
      "齿": 6577,
      "龄": 6578,
      "龈": 6579,
      "龋": 6580,
      "龍": 6581,
      "龙": 6582,
      "龚": 6583,
      "龟": 6584,
      "ꂽ": 6585,
      "ꇴ": 6586,
      "ꞈ": 6587,
      "꣬": 6588,
      "가": 6589,
      "각": 6590,
      "간": 6591,
      "갈": 6592,
      "감": 6593,
      "갑": 6594,
      "값": 6595,
      "갓": 6596,
      "갔": 6597,
      "강": 6598,
      "갖": 6599,
      "같": 6600,
      "갚": 6601,
      "개": 6602,
      "객": 6603,
      "갯": 6604,
      "걍": 6605,
      "걔": 6606,
      "거": 6607,
      "건": 6608,
      "걷": 6609,
      "걸": 6610,
      "검": 6611,
      "겁": 6612,
      "것": 6613,
      "게": 6614,
      "겐": 6615,
      "겟": 6616,
      "겠": 6617,
      "겨": 6618,
      "격": 6619,
      "겪": 6620,
      "견": 6621,
      "결": 6622,
      "겸": 6623,
      "겹": 6624,
      "겼": 6625,
      "경": 6626,
      "곁": 6627,
      "계": 6628,
      "곘": 6629,
      "고": 6630,
      "곡": 6631,
      "곤": 6632,
      "곧": 6633,
      "골": 6634,
      "곱": 6635,
      "곳": 6636,
      "공": 6637,
      "과": 6638,
      "곽": 6639,
      "관": 6640,
      "괄": 6641,
      "광": 6642,
      "괜": 6643,
      "괴": 6644,
      "굉": 6645,
      "교": 6646,
      "구": 6647,
      "국": 6648,
      "군": 6649,
      "굳": 6650,
      "굴": 6651,
      "굵": 6652,
      "굽": 6653,
      "굿": 6654,
      "궁": 6655,
      "권": 6656,
      "궤": 6657,
      "귀": 6658,
      "귄": 6659,
      "규": 6660,
      "균": 6661,
      "그": 6662,
      "극": 6663,
      "근": 6664,
      "글": 6665,
      "금": 6666,
      "급": 6667,
      "긋": 6668,
      "긍": 6669,
      "기": 6670,
      "긴": 6671,
      "길": 6672,
      "김": 6673,
      "깊": 6674,
      "까": 6675,
      "깐": 6676,
      "깔": 6677,
      "깜": 6678,
      "깝": 6679,
      "깨": 6680,
      "꺼": 6681,
      "껄": 6682,
      "껏": 6683,
      "께": 6684,
      "껴": 6685,
      "꼐": 6686,
      "꼭": 6687,
      "꼰": 6688,
      "꼴": 6689,
      "꽃": 6690,
      "꽊": 6691,
      "꽤": 6692,
      "꾸": 6693,
      "꾼": 6694,
      "꿀": 6695,
      "꿈": 6696,
      "꿔": 6697,
      "꿨": 6698,
      "뀌": 6699,
      "뀐": 6700,
      "뀔": 6701,
      "뀜": 6702,
      "끄": 6703,
      "끈": 6704,
      "끌": 6705,
      "끔": 6706,
      "끝": 6707,
      "끼": 6708,
      "낀": 6709,
      "낄": 6710,
      "낌": 6711,
      "낍": 6712,
      "나": 6713,
      "낙": 6714,
      "난": 6715,
      "날": 6716,
      "남": 6717,
      "납": 6718,
      "낫": 6719,
      "났": 6720,
      "낭": 6721,
      "낮": 6722,
      "낱": 6723,
      "낳": 6724,
      "내": 6725,
      "낸": 6726,
      "낼": 6727,
      "냄": 6728,
      "냅": 6729,
      "냈": 6730,
      "냐": 6731,
      "냥": 6732,
      "냬": 6733,
      "너": 6734,
      "넌": 6735,
      "널": 6736,
      "넓": 6737,
      "넘": 6738,
      "넣": 6739,
      "네": 6740,
      "넥": 6741,
      "넨": 6742,
      "넬": 6743,
      "넵": 6744,
      "넷": 6745,
      "넹": 6746,
      "넼": 6747,
      "녀": 6748,
      "녁": 6749,
      "년": 6750,
      "념": 6751,
      "녔": 6752,
      "녕": 6753,
      "노": 6754,
      "녹": 6755,
      "논": 6756,
      "놀": 6757,
      "놈": 6758,
      "농": 6759,
      "높": 6760,
      "놓": 6761,
      "놔": 6762,
      "놨": 6763,
      "뇌": 6764,
      "누": 6765,
      "눈": 6766,
      "눌": 6767,
      "눠": 6768,
      "뉘": 6769,
      "뉴": 6770,
      "느": 6771,
      "는": 6772,
      "늘": 6773,
      "능": 6774,
      "늦": 6775,
      "니": 6776,
      "닉": 6777,
      "닌": 6778,
      "닐": 6779,
      "님": 6780,
      "닛": 6781,
      "닝": 6782,
      "다": 6783,
      "닥": 6784,
      "단": 6785,
      "닫": 6786,
      "달": 6787,
      "닭": 6788,
      "담": 6789,
      "답": 6790,
      "당": 6791,
      "닿": 6792,
      "대": 6793,
      "댁": 6794,
      "댐": 6795,
      "댓": 6796,
      "더": 6797,
      "덕": 6798,
      "던": 6799,
      "덜": 6800,
      "덤": 6801,
      "덧": 6802,
      "덩": 6803,
      "덮": 6804,
      "데": 6805,
      "덱": 6806,
      "델": 6807,
      "도": 6808,
      "독": 6809,
      "돈": 6810,
      "돌": 6811,
      "돕": 6812,
      "동": 6813,
      "돼": 6814,
      "됐": 6815,
      "되": 6816,
      "된": 6817,
      "될": 6818,
      "됨": 6819,
      "됩": 6820,
      "두": 6821,
      "둑": 6822,
      "둔": 6823,
      "둘": 6824,
      "둥": 6825,
      "뒀": 6826,
      "뒤": 6827,
      "뒷": 6828,
      "듈": 6829,
      "드": 6830,
      "득": 6831,
      "든": 6832,
      "듣": 6833,
      "들": 6834,
      "듦": 6835,
      "듬": 6836,
      "듯": 6837,
      "등": 6838,
      "디": 6839,
      "딕": 6840,
      "딜": 6841,
      "딥": 6842,
      "딩": 6843,
      "딪": 6844,
      "따": 6845,
      "딱": 6846,
      "딴": 6847,
      "땅": 6848,
      "때": 6849,
      "땟": 6850,
      "땠": 6851,
      "떄": 6852,
      "떠": 6853,
      "떤": 6854,
      "떨": 6855,
      "떻": 6856,
      "떼": 6857,
      "또": 6858,
      "똑": 6859,
      "똔": 6860,
      "뚜": 6861,
      "뚱": 6862,
      "뛰": 6863,
      "뜨": 6864,
      "뜯": 6865,
      "뜻": 6866,
      "띄": 6867,
      "라": 6868,
      "락": 6869,
      "란": 6870,
      "람": 6871,
      "랍": 6872,
      "랐": 6873,
      "랑": 6874,
      "래": 6875,
      "랙": 6876,
      "랜": 6877,
      "램": 6878,
      "랫": 6879,
      "랬": 6880,
      "랭": 6881,
      "랰": 6882,
      "략": 6883,
      "량": 6884,
      "러": 6885,
      "럭": 6886,
      "런": 6887,
      "럴": 6888,
      "럼": 6889,
      "럽": 6890,
      "렀": 6891,
      "렇": 6892,
      "레": 6893,
      "렉": 6894,
      "렌": 6895,
      "렐": 6896,
      "려": 6897,
      "력": 6898,
      "련": 6899,
      "렬": 6900,
      "렴": 6901,
      "렵": 6902,
      "렷": 6903,
      "렸": 6904,
      "령": 6905,
      "례": 6906,
      "로": 6907,
      "록": 6908,
      "론": 6909,
      "롣": 6910,
      "롤": 6911,
      "롬": 6912,
      "롭": 6913,
      "롯": 6914,
      "뢰": 6915,
      "료": 6916,
      "룡": 6917,
      "루": 6918,
      "룩": 6919,
      "룬": 6920,
      "룰": 6921,
      "룸": 6922,
      "룹": 6923,
      "룺": 6924,
      "룻": 6925,
      "뤄": 6926,
      "뤘": 6927,
      "류": 6928,
      "륜": 6929,
      "률": 6930,
      "륨": 6931,
      "륭": 6932,
      "르": 6933,
      "른": 6934,
      "를": 6935,
      "름": 6936,
      "릅": 6937,
      "릇": 6938,
      "리": 6939,
      "릭": 6940,
      "린": 6941,
      "릴": 6942,
      "림": 6943,
      "립": 6944,
      "릿": 6945,
      "링": 6946,
      "마": 6947,
      "막": 6948,
      "만": 6949,
      "많": 6950,
      "말": 6951,
      "맘": 6952,
      "맙": 6953,
      "맛": 6954,
      "망": 6955,
      "맞": 6956,
      "맡": 6957,
      "매": 6958,
      "맥": 6959,
      "맨": 6960,
      "맵": 6961,
      "맷": 6962,
      "맺": 6963,
      "머": 6964,
      "먹": 6965,
      "먼": 6966,
      "멀": 6967,
      "멋": 6968,
      "멍": 6969,
      "메": 6970,
      "멘": 6971,
      "멜": 6972,
      "며": 6973,
      "멱": 6974,
      "면": 6975,
      "멸": 6976,
      "명": 6977,
      "몇": 6978,
      "모": 6979,
      "목": 6980,
      "몰": 6981,
      "몸": 6982,
      "못": 6983,
      "묘": 6984,
      "무": 6985,
      "묵": 6986,
      "묶": 6987,
      "문": 6988,
      "묻": 6989,
      "물": 6990,
      "뭇": 6991,
      "뭉": 6992,
      "뭐": 6993,
      "뭔": 6994,
      "뭘": 6995,
      "뮤": 6996,
      "뮬": 6997,
      "므": 6998,
      "미": 6999,
      "민": 7000,
      "믿": 7001,
      "밀": 7002,
      "밊": 7003,
      "밍": 7004,
      "및": 7005,
      "밑": 7006,
      "바": 7007,
      "박": 7008,
      "밖": 7009,
      "반": 7010,
      "받": 7011,
      "발": 7012,
      "밝": 7013,
      "밟": 7014,
      "밠": 7015,
      "밤": 7016,
      "밥": 7017,
      "방": 7018,
      "밪": 7019,
      "배": 7020,
      "백": 7021,
      "밸": 7022,
      "뱉": 7023,
      "뱾": 7024,
      "버": 7025,
      "번": 7026,
      "벌": 7027,
      "범": 7028,
      "법": 7029,
      "벗": 7030,
      "베": 7031,
      "벡": 7032,
      "벢": 7033,
      "벤": 7034,
      "벨": 7035,
      "벳": 7036,
      "벻": 7037,
      "벼": 7038,
      "벽": 7039,
      "변": 7040,
      "별": 7041,
      "볍": 7042,
      "병": 7043,
      "보": 7044,
      "복": 7045,
      "본": 7046,
      "볼": 7047,
      "봄": 7048,
      "봅": 7049,
      "봇": 7050,
      "봉": 7051,
      "봐": 7052,
      "봣": 7053,
      "봤": 7054,
      "뵙": 7055,
      "부": 7056,
      "북": 7057,
      "분": 7058,
      "불": 7059,
      "붓": 7060,
      "붕": 7061,
      "붙": 7062,
      "뷰": 7063,
      "브": 7064,
      "블": 7065,
      "비": 7066,
      "빅": 7067,
      "빈": 7068,
      "빌": 7069,
      "빔": 7070,
      "빗": 7071,
      "빙": 7072,
      "빛": 7073,
      "빠": 7074,
      "빡": 7075,
      "빨": 7076,
      "빼": 7077,
      "뺀": 7078,
      "뺄": 7079,
      "뺌": 7080,
      "뺐": 7081,
      "뺴": 7082,
      "뻈": 7083,
      "뻐": 7084,
      "뻔": 7085,
      "뻤": 7086,
      "뽑": 7087,
      "뾰": 7088,
      "뿅": 7089,
      "뿌": 7090,
      "뿐": 7091,
      "쁘": 7092,
      "쁜": 7093,
      "삐": 7094,
      "사": 7095,
      "삭": 7096,
      "산": 7097,
      "살": 7098,
      "삶": 7099,
      "삼": 7100,
      "삽": 7101,
      "삿": 7102,
      "상": 7103,
      "새": 7104,
      "색": 7105,
      "샘": 7106,
      "생": 7107,
      "샷": 7108,
      "서": 7109,
      "석": 7110,
      "섞": 7111,
      "선": 7112,
      "설": 7113,
      "섬": 7114,
      "섭": 7115,
      "섯": 7116,
      "섰": 7117,
      "성": 7118,
      "세": 7119,
      "섹": 7120,
      "센": 7121,
      "셈": 7122,
      "셉": 7123,
      "셋": 7124,
      "셌": 7125,
      "셔": 7126,
      "션": 7127,
      "셜": 7128,
      "셨": 7129,
      "셰": 7130,
      "소": 7131,
      "속": 7132,
      "손": 7133,
      "솔": 7134,
      "송": 7135,
      "쇄": 7136,
      "쇼": 7137,
      "숍": 7138,
      "수": 7139,
      "숙": 7140,
      "순": 7141,
      "술": 7142,
      "숨": 7143,
      "숫": 7144,
      "숭": 7145,
      "숴": 7146,
      "쉬": 7147,
      "쉽": 7148,
      "슈": 7149,
      "슘": 7150,
      "스": 7151,
      "슨": 7152,
      "슬": 7153,
      "슴": 7154,
      "습": 7155,
      "슷": 7156,
      "승": 7157,
      "싉": 7158,
      "시": 7159,
      "식": 7160,
      "신": 7161,
      "실": 7162,
      "싫": 7163,
      "심": 7164,
      "십": 7165,
      "싱": 7166,
      "싶": 7167,
      "싸": 7168,
      "싹": 7169,
      "싼": 7170,
      "쌍": 7171,
      "쌓": 7172,
      "써": 7173,
      "썩": 7174,
      "썬": 7175,
      "썰": 7176,
      "썻": 7177,
      "썼": 7178,
      "쎄": 7179,
      "쏘": 7180,
      "쏙": 7181,
      "쓰": 7182,
      "쓴": 7183,
      "쓸": 7184,
      "씀": 7185,
      "씁": 7186,
      "씌": 7187,
      "씨": 7188,
      "씩": 7189,
      "씬": 7190,
      "씹": 7191,
      "아": 7192,
      "악": 7193,
      "안": 7194,
      "앉": 7195,
      "않": 7196,
      "알": 7197,
      "암": 7198,
      "압": 7199,
      "았": 7200,
      "앙": 7201,
      "앞": 7202,
      "애": 7203,
      "액": 7204,
      "앧": 7205,
      "앨": 7206,
      "앱": 7207,
      "야": 7208,
      "약": 7209,
      "얐": 7210,
      "양": 7211,
      "얘": 7212,
      "어": 7213,
      "억": 7214,
      "언": 7215,
      "얻": 7216,
      "얼": 7217,
      "얽": 7218,
      "엄": 7219,
      "업": 7220,
      "없": 7221,
      "엇": 7222,
      "었": 7223,
      "엉": 7224,
      "엌": 7225,
      "에": 7226,
      "엑": 7227,
      "엔": 7228,
      "엘": 7229,
      "엠": 7230,
      "엣": 7231,
      "여": 7232,
      "역": 7233,
      "엮": 7234,
      "연": 7235,
      "열": 7236,
      "염": 7237,
      "엽": 7238,
      "였": 7239,
      "영": 7240,
      "옆": 7241,
      "예": 7242,
      "옛": 7243,
      "옜": 7244,
      "오": 7245,
      "옥": 7246,
      "온": 7247,
      "올": 7248,
      "옮": 7249,
      "옳": 7250,
      "옴": 7251,
      "옵": 7252,
      "옷": 7253,
      "와": 7254,
      "완": 7255,
      "왓": 7256,
      "왔": 7257,
      "왕": 7258,
      "왜": 7259,
      "외": 7260,
      "왼": 7261,
      "요": 7262,
      "욕": 7263,
      "용": 7264,
      "우": 7265,
      "욱": 7266,
      "운": 7267,
      "울": 7268,
      "움": 7269,
      "웃": 7270,
      "웅": 7271,
      "워": 7272,
      "웍": 7273,
      "원": 7274,
      "월": 7275,
      "웠": 7276,
      "웤": 7277,
      "웨": 7278,
      "웬": 7279,
      "웰": 7280,
      "웹": 7281,
      "위": 7282,
      "윈": 7283,
      "윗": 7284,
      "유": 7285,
      "육": 7286,
      "윤": 7287,
      "율": 7288,
      "융": 7289,
      "으": 7290,
      "은": 7291,
      "을": 7292,
      "음": 7293,
      "읍": 7294,
      "응": 7295,
      "의": 7296,
      "이": 7297,
      "익": 7298,
      "인": 7299,
      "일": 7300,
      "읽": 7301,
      "잃": 7302,
      "임": 7303,
      "입": 7304,
      "잇": 7305,
      "있": 7306,
      "잊": 7307,
      "잎": 7308,
      "자": 7309,
      "작": 7310,
      "잔": 7311,
      "잖": 7312,
      "잘": 7313,
      "잠": 7314,
      "잡": 7315,
      "장": 7316,
      "재": 7317,
      "쟁": 7318,
      "쟤": 7319,
      "저": 7320,
      "적": 7321,
      "전": 7322,
      "절": 7323,
      "점": 7324,
      "접": 7325,
      "정": 7326,
      "제": 7327,
      "젝": 7328,
      "젠": 7329,
      "젤": 7330,
      "져": 7331,
      "젼": 7332,
      "졌": 7333,
      "조": 7334,
      "족": 7335,
      "존": 7336,
      "졸": 7337,
      "좀": 7338,
      "좁": 7339,
      "종": 7340,
      "좆": 7341,
      "좋": 7342,
      "좌": 7343,
      "죄": 7344,
      "죠": 7345,
      "주": 7346,
      "죽": 7347,
      "준": 7348,
      "줄": 7349,
      "줌": 7350,
      "줍": 7351,
      "중": 7352,
      "줘": 7353,
      "줬": 7354,
      "쥐": 7355,
      "즈": 7356,
      "즉": 7357,
      "즐": 7358,
      "즘": 7359,
      "증": 7360,
      "지": 7361,
      "직": 7362,
      "진": 7363,
      "질": 7364,
      "짐": 7365,
      "집": 7366,
      "짓": 7367,
      "징": 7368,
      "짚": 7369,
      "짜": 7370,
      "짝": 7371,
      "짤": 7372,
      "짧": 7373,
      "짱": 7374,
      "째": 7375,
      "쨰": 7376,
      "쩌": 7377,
      "쩔": 7378,
      "쪼": 7379,
      "쪽": 7380,
      "쭉": 7381,
      "쯤": 7382,
      "찌": 7383,
      "찍": 7384,
      "찐": 7385,
      "차": 7386,
      "착": 7387,
      "찬": 7388,
      "찮": 7389,
      "찰": 7390,
      "참": 7391,
      "창": 7392,
      "찾": 7393,
      "채": 7394,
      "책": 7395,
      "챌": 7396,
      "챔": 7397,
      "챗": 7398,
      "처": 7399,
      "척": 7400,
      "천": 7401,
      "철": 7402,
      "첨": 7403,
      "첩": 7404,
      "첫": 7405,
      "청": 7406,
      "체": 7407,
      "쳐": 7408,
      "쳤": 7409,
      "초": 7410,
      "촉": 7411,
      "총": 7412,
      "촬": 7413,
      "최": 7414,
      "추": 7415,
      "축": 7416,
      "춘": 7417,
      "출": 7418,
      "춤": 7419,
      "충": 7420,
      "춰": 7421,
      "취": 7422,
      "츠": 7423,
      "측": 7424,
      "층": 7425,
      "치": 7426,
      "칙": 7427,
      "친": 7428,
      "칠": 7429,
      "침": 7430,
      "칭": 7431,
      "카": 7432,
      "칸": 7433,
      "칼": 7434,
      "캐": 7435,
      "캔": 7436,
      "캘": 7437,
      "캡": 7438,
      "캥": 7439,
      "커": 7440,
      "컨": 7441,
      "컬": 7442,
      "컴": 7443,
      "컵": 7444,
      "컸": 7445,
      "케": 7446,
      "켈": 7447,
      "켜": 7448,
      "켯": 7449,
      "켰": 7450,
      "코": 7451,
      "콘": 7452,
      "콜": 7453,
      "쿠": 7454,
      "쿼": 7455,
      "퀀": 7456,
      "퀄": 7457,
      "퀘": 7458,
      "퀴": 7459,
      "퀸": 7460,
      "큐": 7461,
      "크": 7462,
      "큰": 7463,
      "클": 7464,
      "큼": 7465,
      "키": 7466,
      "킨": 7467,
      "킬": 7468,
      "킴": 7469,
      "킵": 7470,
      "킷": 7471,
      "킹": 7472,
      "타": 7473,
      "탁": 7474,
      "탄": 7475,
      "탈": 7476,
      "탐": 7477,
      "탑": 7478,
      "탓": 7479,
      "탔": 7480,
      "탕": 7481,
      "태": 7482,
      "택": 7483,
      "탠": 7484,
      "탱": 7485,
      "터": 7486,
      "턴": 7487,
      "털": 7488,
      "텀": 7489,
      "텅": 7490,
      "테": 7491,
      "텍": 7492,
      "텐": 7493,
      "텔": 7494,
      "템": 7495,
      "텝": 7496,
      "텣": 7497,
      "토": 7498,
      "톡": 7499,
      "톤": 7500,
      "톨": 7501,
      "톰": 7502,
      "통": 7503,
      "퇴": 7504,
      "투": 7505,
      "툰": 7506,
      "툴": 7507,
      "툼": 7508,
      "튀": 7509,
      "튈": 7510,
      "튜": 7511,
      "트": 7512,
      "특": 7513,
      "튼": 7514,
      "틀": 7515,
      "티": 7516,
      "틱": 7517,
      "틴": 7518,
      "틸": 7519,
      "팀": 7520,
      "팅": 7521,
      "파": 7522,
      "판": 7523,
      "팔": 7524,
      "패": 7525,
      "팩": 7526,
      "팬": 7527,
      "팽": 7528,
      "퍼": 7529,
      "페": 7530,
      "펜": 7531,
      "펭": 7532,
      "펴": 7533,
      "편": 7534,
      "폈": 7535,
      "평": 7536,
      "폐": 7537,
      "포": 7538,
      "폭": 7539,
      "폰": 7540,
      "폴": 7541,
      "폼": 7542,
      "퐁": 7543,
      "퐾": 7544,
      "퐿": 7545,
      "푀": 7546,
      "푇": 7547,
      "표": 7548,
      "푸": 7549,
      "푼": 7550,
      "풀": 7551,
      "품": 7552,
      "풋": 7553,
      "풍": 7554,
      "퓨": 7555,
      "프": 7556,
      "픈": 7557,
      "플": 7558,
      "픔": 7559,
      "피": 7560,
      "픽": 7561,
      "핀": 7562,
      "필": 7563,
      "핏": 7564,
      "핑": 7565,
      "하": 7566,
      "학": 7567,
      "한": 7568,
      "할": 7569,
      "함": 7570,
      "합": 7571,
      "항": 7572,
      "해": 7573,
      "핵": 7574,
      "핸": 7575,
      "햇": 7576,
      "했": 7577,
      "행": 7578,
      "향": 7579,
      "허": 7580,
      "헉": 7581,
      "헌": 7582,
      "헐": 7583,
      "험": 7584,
      "헤": 7585,
      "헬": 7586,
      "헷": 7587,
      "혀": 7588,
      "혁": 7589,
      "현": 7590,
      "혈": 7591,
      "혐": 7592,
      "협": 7593,
      "혔": 7594,
      "형": 7595,
      "혜": 7596,
      "호": 7597,
      "혹": 7598,
      "혼": 7599,
      "홀": 7600,
      "홈": 7601,
      "홍": 7602,
      "화": 7603,
      "확": 7604,
      "환": 7605,
      "활": 7606,
      "황": 7607,
      "회": 7608,
      "획": 7609,
      "횟": 7610,
      "횡": 7611,
      "효": 7612,
      "후": 7613,
      "훈": 7614,
      "훌": 7615,
      "훑": 7616,
      "훨": 7617,
      "훼": 7618,
      "훾": 7619,
      "휘": 7620,
      "휨": 7621,
      "휴": 7622,
      "흉": 7623,
      "흐": 7624,
      "흑": 7625,
      "흔": 7626,
      "흘": 7627,
      "흠": 7628,
      "흥": 7629,
      "희": 7630,
      "히": 7631,
      "힌": 7632,
      "힐": 7633,
      "힘": 7634,
      "힙": 7635,
      "": 7636,
      "": 7637,
      "": 7638,
      "": 7639,
      "": 7640,
      "": 7641,
      "": 7642,
      "": 7643,
      "": 7644,
      "": 7645,
      "": 7646,
      "": 7647,
      "": 7648,
      "": 7649,
      "": 7650,
      "": 7651,
      "": 7652,
      "": 7653,
      "": 7654,
      "": 7655,
      "": 7656,
      "": 7657,
      "": 7658,
      "": 7659,
      "": 7660,
      "": 7661,
      "": 7662,
      "": 7663,
      "": 7664,
      "": 7665,
      "": 7666,
      "": 7667,
      "": 7668,
      "拉": 7669,
      "錄": 7670,
      "塞": 7671,
      "年": 7672,
      "了": 7673,
      "利": 7674,
      "﨑": 7675,
      "ﬀ": 7676,
      "ﬁ": 7677,
      "ﬂ": 7678,
      "ﬃ": 7679,
      "ﬄ": 7680,
      "︁": 7681,
      "︎": 7682,
      "️": 7683,
      "︠": 7684,
      "︡": 7685,
      "﹑": 7686,
      "﹛": 7687,
      "﹞": 7688,
      "﹣": 7689,
      "﻿": 7690,
      "！": 7691,
      "＃": 7692,
      "％": 7693,
      "＆": 7694,
      "（": 7695,
      "）": 7696,
      "＊": 7697,
      "＋": 7698,
      "，": 7699,
      "－": 7700,
      "．": 7701,
      "／": 7702,
      "０": 7703,
      "１": 7704,
      "２": 7705,
      "３": 7706,
      "４": 7707,
      "５": 7708,
      "６": 7709,
      "７": 7710,
      "８": 7711,
      "９": 7712,
      "：": 7713,
      "；": 7714,
      "＜": 7715,
      "＝": 7716,
      "＞": 7717,
      "？": 7718,
      "Ａ": 7719,
      "Ｃ": 7720,
      "Ｄ": 7721,
      "Ｅ": 7722,
      "Ｇ": 7723,
      "Ｉ": 7724,
      "Ｊ": 7725,
      "Ｋ": 7726,
      "Ｌ": 7727,
      "Ｍ": 7728,
      "Ｎ": 7729,
      "Ｏ": 7730,
      "Ｑ": 7731,
      "Ｒ": 7732,
      "Ｓ": 7733,
      "Ｔ": 7734,
      "［": 7735,
      "＼": 7736,
      "］": 7737,
      "ｂ": 7738,
      "ｃ": 7739,
      "ｄ": 7740,
      "ｅ": 7741,
      "ｆ": 7742,
      "ｋ": 7743,
      "ｌ": 7744,
      "ｍ": 7745,
      "ｎ": 7746,
      "ｏ": 7747,
      "ｐ": 7748,
      "ｑ": 7749,
      "ｒ": 7750,
      "ｓ": 7751,
      "ｔ": 7752,
      "ｕ": 7753,
      "ｘ": 7754,
      "ｙ": 7755,
      "ｚ": 7756,
      "｛": 7757,
      "｜": 7758,
      "｝": 7759,
      "～": 7760,
      "｡": 7761,
      "､": 7762,
      "ｧ": 7763,
      "ｩ": 7764,
      "ｪ": 7765,
      "ｰ": 7766,
      "ｳ": 7767,
      "ｴ": 7768,
      "ｵ": 7769,
      "ｿ": 7770,
      "ﾄ": 7771,
      "ﾅ": 7772,
      "ﾊ": 7773,
      "ﾌ": 7774,
      "ﾗ": 7775,
      "ﾚ": 7776,
      "ﾝ": 7777,
      "ﾞ": 7778,
      "ﾟ": 7779,
      "￠": 7780,
      "￥": 7781,
      "￼": 7782,
      "�": 7783,
      "￾": 7784,
      "𠮟": 7785,
      "񦧨": 7786,
      "򵥱": 7787,
      "􀀀": 7788,
      "􏰞": 7789,
      "􏰟": 7790,
      "􏰠": 7791,
      "􏰬": 7792,
      "􏰰": 7793,
      "􏱱": 7794,
      "􏱶": 7795,
      "􏱷": 7796,
      "th": 7797,
      "in": 7798,
      "on": 7799,
      "ti": 7800,
      "re": 7801,
      "the": 7802,
      "te": 7803,
      "an": 7804,
      "al": 7805,
      "en": 7806,
      "or": 7807,
      "er": 7808,
      "tion": 7809,
      "ar": 7810,
      "le": 7811,
      "is": 7812,
      "ma": 7813,
      "{\\": 7814,
      "se": 7815,
      "of": 7816,
      "de": 7817,
      "ta": 7818,
      "and": 7819,
      "ing": 7820,
      "ro": 7821,
      "ra": 7822,
      "be": 7823,
      "%%": 7824,
      "si": 7825,
      "to": 7826,
      "me": 7827,
      "at": 7828,
      "es": 7829,
      "ig": 7830,
      "co": 7831,
      "la": 7832,
      "ic": 7833,
      "$\\": 7834,
      "st": 7835,
      "su": 7836,
      "ve": 7837,
      "for": 7838,
      "ch": 7839,
      "ce": 7840,
      "it": 7841,
      "}}": 7842,
      "mp": 7843,
      "ou": 7844,
      "he": 7845,
      "as": 7846,
      "ite": 7847,
      "qu": 7848,
      "ation": 7849,
      "ly": 7850,
      "lo": 7851,
      "ent": 7852,
      "con": 7853,
      "we": 7854,
      "}\\": 7855,
      "pro": 7856,
      "20": 7857,
      "wi": 7858,
      "%%%%": 7859,
      "ct": 7860,
      "math": 7861,
      "^{": 7862,
      "ne": 7863,
      "--": 7864,
      "ter": 7865,
      "(\\": 7866,
      "ol": 7867,
      "ph": 7868,
      "}{": 7869,
      "di": 7870,
      "mo": 7871,
      "ref": 7872,
      "un": 7873,
      "ed": 7874,
      "cal": 7875,
      "}$": 7876,
      "end": 7877,
      "ver": 7878,
      "ction": 7879,
      "ib": 7880,
      "tex": 7881,
      "ge": 7882,
      "tr": 7883,
      "that": 7884,
      "res": 7885,
      "no": 7886,
      "igh": 7887,
      "per": 7888,
      "ul": 7889,
      "},": 7890,
      "ex": 7891,
      "The": 7892,
      "gin": 7893,
      "cite": 7894,
      "are": 7895,
      "with": 7896,
      "fra": 7897,
      "um": 7898,
      "ts": 7899,
      "ted": 7900,
      "po": 7901,
      "begin": 7902,
      "\\\\": 7903,
      "da": 7904,
      "do": 7905,
      "ap": 7906,
      "text": 7907,
      "il": 7908,
      "ab": 7909,
      "pa": 7910,
      "frac": 7911,
      "ine": 7912,
      "bf": 7913,
      "ight": 7914,
      "us": 7915,
      "par": 7916,
      "ho": 7917,
      "am": 7918,
      "ft": 7919,
      "ame": 7920,
      "equ": 7921,
      "el": 7922,
      "bib": 7923,
      "ad": 7924,
      "by": 7925,
      "00": 7926,
      ")$": 7927,
      "ur": 7928,
      "del": 7929,
      "ff": 7930,
      "pe": 7931,
      "ir": 7932,
      "li": 7933,
      "%%%%%%%%": 7934,
      "wh": 7935,
      "eq": 7936,
      "ase": 7937,
      "ity": 7938,
      "ment": 7939,
      "right": 7940,
      "ri": 7941,
      "ac": 7942,
      "~\\": 7943,
      "_1": 7944,
      "der": 7945,
      "comp": 7946,
      "})": 7947,
      "equation": 7948,
      "}.": 7949,
      "tic": 7950,
      "du": 7951,
      "mb": 7952,
      "bel": 7953,
      ",\\": 7954,
      "In": 7955,
      "label": 7956,
      "----": 7957,
      "line": 7958,
      "def": 7959,
      "left": 7960,
      "$,": 7961,
      "vi": 7962,
      "ds": 7963,
      "mu": 7964,
      "ure": 7965,
      "tive": 7966,
      "our": 7967,
      "mm": 7968,
      "ang": 7969,
      "can": 7970,
      "dis": 7971,
      "rom": 7972,
      "201": 7973,
      "time": 7974,
      "all": 7975,
      "et": 7976,
      "low": 7977,
      "so": 7978,
      "ble": 7979,
      "au": 7980,
      "rm": 7981,
      "ll": 7982,
      "$.": 7983,
      "sub": 7984,
      "iz": 7985,
      "ga": 7986,
      "ten": 7987,
      "sig": 7988,
      "==": 7989,
      "ci": 7990,
      "fi": 7991,
      "tions": 7992,
      "from": 7993,
      "ren": 7994,
      "this": 7995,
      "gra": 7996,
      "set": 7997,
      "mathcal": 7998,
      "new": 7999,
      "ys": 8000,
      "ss": 8001,
      "}{\\": 8002,
      "int": 8003,
      "_2": 8004,
      "ck": 8005,
      "10": 8006,
      "}(": 8007,
      "model": 8008,
      "}^": 8009,
      "col": 8010,
      "ich": 8011,
      "up": 8012,
      "sion": 8013,
      "val": 8014,
      "ha": 8015,
      "name": 8016,
      "fo": 8017,
      "_i": 8018,
      "tra": 8019,
      "item": 8020,
      "tial": 8021,
      "ach": 8022,
      "We": 8023,
      "Th": 8024,
      "ces": 8025,
      "sta": 8026,
      "ob": 8027,
      "ont": 8028,
      "lu": 8029,
      "ener": 8030,
      "ut": 8031,
      "comm": 8032,
      "ther": 8033,
      "-\\": 8034,
      "ant": 8035,
      "which": 8036,
      "use": 8037,
      "wor": 8038,
      "red": 8039,
      "ate": 8040,
      "var": 8041,
      "ty": 8042,
      ")\\": 8043,
      "section": 8044,
      "ffe": 8045,
      "]{": 8046,
      "pha": 8047,
      "alpha": 8048,
      "_0": 8049,
      "form": 8050,
      "here": 8051,
      "font": 8052,
      "alig": 8053,
      "}^{": 8054,
      "ru": 8055,
      "202": 8056,
      "id": 8057,
      "ore": 8058,
      "data": 8059,
      "ance": 8060,
      "namefont": 8061,
      "sc": 8062,
      "pres": 8063,
      "textbf": 8064,
      "fig": 8065,
      "cor": 8066,
      "psi": 8067,
      "bo": 8068,
      "if": 8069,
      "pl": 8070,
      "amma": 8071,
      "=\\": 8072,
      "min": 8073,
      "mple": 8074,
      "gi": 8075,
      "not": 8076,
      "ding": 8077,
      "m_": 8078,
      "ence": 8079,
      "xi": 8080,
      "ms": 8081,
      "command": 8082,
      "align": 8083,
      "pi": 8084,
      "where": 8085,
      "sh": 8086,
      "op": 8087,
      "oun": 8088,
      "mul": 8089,
      "ber": 8090,
      "over": 8091,
      "^{\\": 8092,
      "ical": 8093,
      "spa": 8094,
      "ke": 8095,
      "have": 8096,
      "ular": 8097,
      "mathbf": 8098,
      "how": 8099,
      "times": 8100,
      "work": 8101,
      "thor": 8102,
      "out": 8103,
      "valu": 8104,
      "lon": 8105,
      "mega": 8106,
      "hat": 8107,
      "%%%%%%%%%%%%%%%%": 8108,
      "one": 8109,
      "phi": 8110,
      "19": 8111,
      "tit": 8112,
      "ting": 8113,
      "em": 8114,
      "ven": 8115,
      "),": 8116,
      "ser": 8117,
      "tho": 8118,
      "*}": 8119,
      "fun": 8120,
      "sa": 8121,
      "gener": 8122,
      "sul": 8123,
      "newcommand": 8124,
      "able": 8125,
      "ution": 8126,
      "tw": 8127,
      "author": 8128,
      ".~": 8129,
      "tation": 8130,
      "row": 8131,
      "multi": 8132,
      "ary": 8133,
      "+\\": 8134,
      ")}": 8135,
      ").": 8136,
      "til": 8137,
      "resul": 8138,
      "--------": 8139,
      "ans": 8140,
      "bb": 8141,
      "ined": 8142,
      "fa": 8143,
      "angle": 8144,
      "lamb": 8145,
      "lambda": 8146,
      "theta": 8147,
      "Re": 8148,
      "fe": 8149,
      "info": 8150,
      "spe": 8151,
      "inc": 8152,
      "bibinfo": 8153,
      "tri": 8154,
      "^\\": 8155,
      "graph": 8156,
      "12": 8157,
      "ze": 8158,
      "stra": 8159,
      "sigma": 8160,
      "cla": 8161,
      "show": 8162,
      "pt": 8163,
      "umber": 8164,
      "its": 8165,
      "This": 8166,
      "tes": 8167,
      "ges": 8168,
      "function": 8169,
      "ctor": 8170,
      "vari": 8171,
      "log": 8172,
      "beta": 8173,
      "two": 8174,
      "dot": 8175,
      "ous": 8176,
      "non": 8177,
      "====": 8178,
      "imp": 8179,
      "fol": 8180,
      "pre": 8181,
      "For": 8182,
      "tab": 8183,
      "tilde": 8184,
      "den": 8185,
      "nal": 8186,
      "om": 8187,
      "fin": 8188,
      "space": 8189,
      "fferen": 8190,
      "eqref": 8191,
      "ps": 8192,
      "^{-": 8193,
      "rela": 8194,
      "mathrm": 8195,
      "gamma": 8196,
      "je": 8197,
      "emp": 8198,
      "mathbb": 8199,
      "differen": 8200,
      "bet": 8201,
      "appro": 8202,
      ".}": 8203,
      "ations": 8204,
      "Fig": 8205,
      "tau": 8206,
      "psilon": 8207,
      "case": 8208,
      "rho": 8209,
      "}$,": 8210,
      "bar": 8211,
      "ded": 8212,
      "mal": 8213,
      "ori": 8214,
      "|\\": 8215,
      "cy": 8216,
      "stru": 8217,
      "men": 8218,
      "trib": 8219,
      "cu": 8220,
      "cap": 8221,
      "such": 8222,
      "yste": 8223,
      "big": 8224,
      "sum_": 8225,
      "base": 8226,
      "mation": 8227,
      "$-": 8228,
      "%\\": 8229,
      "follow": 8230,
      "ound": 8231,
      "ree": 8232,
      "delta": 8233,
      "metho": 8234,
      "\\,": 8235,
      "}(\\": 8236,
      "man": 8237,
      "Ph": 8238,
      "ated": 8239,
      "dy": 8240,
      "sed": 8241,
      "sing": 8242,
      "inte": 8243,
      "}[": 8244,
      "leq": 8245,
      "ctive": 8246,
      "ves": 8247,
      "age": 8248,
      "_n": 8249,
      "tical": 8250,
      "ator": 8251,
      "has": 8252,
      "sol": 8253,
      "each": 8254,
      "ally": 8255,
      "also": 8256,
      "fiel": 8257,
      "pp": 8258,
      "syste": 8259,
      "11": 8260,
      "sk": 8261,
      "ag": 8262,
      "ility": 8263,
      "bm": 8264,
      "pm": 8265,
      "sim": 8266,
      "nu": 8267,
      "using": 8268,
      "orem": 8269,
      "ark": 8270,
      "wa": 8271,
      "led": 8272,
      "200": 8273,
      "_k": 8274,
      "main": 8275,
      "ments": 8276,
      "dots": 8277,
      "lear": 8278,
      "ot": 8279,
      "metr": 8280,
      "parame": 8281,
      "more": 8282,
      "ers": 8283,
      "..": 8284,
      "dep": 8285,
      "cted": 8286,
      "table": 8287,
      "under": 8288,
      "ween": 8289,
      "&\\": 8290,
      "tain": 8291,
      "partial": 8292,
      "exp": 8293,
      "between": 8294,
      ".,": 8295,
      "ties": 8296,
      "ell": 8297,
      "ssi": 8298,
      "arge": 8299,
      "De": 8300,
      "number": 8301,
      "ard": 8302,
      "sec": 8303,
      "ort": 8304,
      "other": 8305,
      "gh": 8306,
      "cc": 8307,
      "omega": 8308,
      "ved": 8309,
      "high": 8310,
      "irst": 8311,
      "inter": 8312,
      "ste": 8313,
      "vol": 8314,
      "_j": 8315,
      "thm": 8316,
      "posi": 8317,
      "quad": 8318,
      "im": 8319,
      "subsection": 8320,
      "parameter": 8321,
      "tt": 8322,
      "dition": 8323,
      "only": 8324,
      "Del": 8325,
      "ong": 8326,
      "ents": 8327,
      "ning": 8328,
      "peri": 8329,
      "ni": 8330,
      "rt": 8331,
      "sq": 8332,
      "bibitem": 8333,
      "field": 8334,
      "olds": 8335,
      "15": 8336,
      "results": 8337,
      "color": 8338,
      "des": 8339,
      "13": 8340,
      "Se": 8341,
      "les": 8342,
      "ization": 8343,
      "now": 8344,
      "Delta": 8345,
      "ini": 8346,
      "16": 8347,
      "_t": 8348,
      "ffic": 8349,
      "lation": 8350,
      "mi": 8351,
      "trans": 8352,
      "used": 8353,
      "scri": 8354,
      "wid": 8355,
      "cdot": 8356,
      "width": 8357,
      "ak": 8358,
      "ics": 8359,
      "sity": 8360,
      "ise": 8361,
      "fty": 8362,
      "these": 8363,
      "sqrt": 8364,
      "then": 8365,
      "ima": 8366,
      "infty": 8367,
      "eta": 8368,
      "inclu": 8369,
      "pri": 8370,
      "umn": 8371,
      "size": 8372,
      "}$.": 8373,
      "will": 8374,
      "No": 8375,
      "ray": 8376,
      "sm": 8377,
      "column": 8378,
      "gori": 8379,
      "str": 8380,
      "ind": 8381,
      "pon": 8382,
      "pla": 8383,
      "perform": 8384,
      "ld": 8385,
      "arrow": 8386,
      "14": 8387,
      "requ": 8388,
      "gro": 8389,
      "than": 8390,
      "based": 8391,
      "sy": 8392,
      "different": 8393,
      "trix": 8394,
      "matrix": 8395,
      "sure": 8396,
      "cont": 8397,
      "duce": 8398,
      "hline": 8399,
      "nor": 8400,
      "obser": 8401,
      "state": 8402,
      "mbol": 8403,
      "ures": 8404,
      "2022": 8405,
      "Co": 8406,
      "gy": 8407,
      "first": 8408,
      "app": 8409,
      "ele": 8410,
      "respon": 8411,
      "ran": 8412,
      "pr": 8413,
      "sign": 8414,
      "exa": 8415,
      "formation": 8416,
      "arch": 8417,
      "textit": 8418,
      "lin": 8419,
      "anal": 8420,
      "cen": 8421,
      "25": 8422,
      "cess": 8423,
      "fic": 8424,
      "scal": 8425,
      "order": 8426,
      "ile": 8427,
      "struct": 8428,
      "proof": 8429,
      "od": 8430,
      "uni": 8431,
      "any": 8432,
      "ournal": 8433,
      "consi": 8434,
      "models": 8435,
      "ses": 8436,
      "$(": 8437,
      "cur": 8438,
      "As": 8439,
      "ining": 8440,
      "2021": 8441,
      "sen": 8442,
      "emph": 8443,
      "there": 8444,
      "ger": 8445,
      "}}\\": 8446,
      "net": 8447,
      "depend": 8448,
      "see": 8449,
      "ari": 8450,
      "top": 8451,
      "To": 8452,
      "ful": 8453,
      "oper": 8454,
      "chan": 8455,
      "distrib": 8456,
      "effe": 8457,
      "repres": 8458,
      "when": 8459,
      "},\\": 8460,
      "}}}": 8461,
      "18": 8462,
      ".~\\": 8463,
      "[\\": 8464,
      "sp": 8465,
      "epsilon": 8466,
      "partic": 8467,
      "small": 8468,
      "ature": 8469,
      "**": 8470,
      "Pro": 8471,
      "Let": 8472,
      "array": 8473,
      "ctr": 8474,
      "wide": 8475,
      "star": 8476,
      "comple": 8477,
      "stu": 8478,
      "\\%": 8479,
      "17": 8480,
      "x_": 8481,
      "citenamefont": 8482,
      "put": 8483,
      "^{(": 8484,
      "ons": 8485,
      "given": 8486,
      "mea": 8487,
      "^*": 8488,
      "23": 8489,
      "ymbol": 8490,
      "cts": 8491,
      "ca": 8492,
      "vis": 8493,
      ")$.": 8494,
      "Omega": 8495,
      "provi": 8496,
      "ffici": 8497,
      "vel": 8498,
      "\\@": 8499,
      "ack": 8500,
      "2020": 8501,
      "theorem": 8502,
      "ince": 8503,
      "disc": 8504,
      "journal": 8505,
      "system": 8506,
      "algori": 8507,
      "was": 8508,
      "{{\\": 8509,
      "ized": 8510,
      "{-": 8511,
      "}},": 8512,
      "bolds": 8513,
      "boldsymbol": 8514,
      "Con": 8515,
      "}^{\\": 8516,
      "esti": 8517,
      "proble": 8518,
      "\\|": 8519,
      "into": 8520,
      "----------------": 8521,
      ")$,": 8522,
      "center": 8523,
      "eng": 8524,
      "some": 8525,
      "bibnamefont": 8526,
      "their": 8527,
      "ory": 8528,
      "ating": 8529,
      "tabular": 8530,
      "EE": 8531,
      "\\{": 8532,
      "22": 8533,
      "lim": 8534,
      "ould": 8535,
      "bibf": 8536,
      "bibfnamefont": 8537,
      "mat": 8538,
      "000": 8539,
      "ned": 8540,
      "ess": 8541,
      "sis": 8542,
      "mark": 8543,
      "ving": 8544,
      "citep": 8545,
      "same": 8546,
      "lem": 8547,
      "compu": 8548,
      "point": 8549,
      "following": 8550,
      "_3": 8551,
      "ling": 8552,
      "50": 8553,
      "respe": 8554,
      "ability": 8555,
      "but": 8556,
      "========": 8557,
      "let": 8558,
      "tis": 8559,
      "method": 8560,
      "''": 8561,
      "assu": 8562,
      "Ho": 8563,
      "hy": 8564,
      "sur": 8565,
      "both": 8566,
      "p_": 8567,
      "opti": 8568,
      "cm": 8569,
      "enti": 8570,
      "ear": 8571,
      "ality": 8572,
      "network": 8573,
      "cl": 8574,
      "very": 8575,
      "mon": 8576,
      "24": 8577,
      "Gamma": 8578,
      "example": 8579,
      "bound": 8580,
      "rangle": 8581,
      "ip": 8582,
      "ize": 8583,
      "propo": 8584,
      "plic": 8585,
      "&=": 8586,
      "wever": 8587,
      "It": 8588,
      "correspon": 8589,
      "%%%%%%%%%%%%%%%%%%%%%%%%%%%%%%%%": 8590,
      "speci": 8591,
      "reg": 8592,
      "sample": 8593,
      "30": 8594,
      "mag": 8595,
      "gdef": 8596,
      "multicolumn": 8597,
      "lock": 8598,
      "und": 8599,
      "value": 8600,
      "99": 8601,
      "redic": 8602,
      "ilar": 8603,
      "}%": 8604,
      "energy": 8605,
      ")^": 8606,
      "sequ": 8607,
      "linear": 8608,
      "dire": 8609,
      "approach": 8610,
      "iv": 8611,
      "cir": 8612,
      "che": 8613,
      "note": 8614,
      "consider": 8615,
      "experi": 8616,
      "exis": 8617,
      "values": 8618,
      "ew": 8619,
      "Big": 8620,
      "mension": 8621,
      "ctions": 8622,
      "2019": 8623,
      "cho": 8624,
      "training": 8625,
      "predic": 8626,
      "Ma": 8627,
      "geq": 8628,
      "ion": 8629,
      "``": 8630,
      "dimension": 8631,
      "cent": 8632,
      "temp": 8633,
      "bi": 8634,
      "rule": 8635,
      "ints": 8636,
      "learning": 8637,
      "nam": 8638,
      "bra": 8639,
      "}=": 8640,
      "general": 8641,
      "ie": 8642,
      "performance": 8643,
      "umer": 8644,
      "cum": 8645,
      "rou": 8646,
      "Ch": 8647,
      "lay": 8648,
      "less": 8649,
      "coun": 8650,
      "know": 8651,
      "large": 8652,
      "dist": 8653,
      "chi": 8654,
      "rate": 8655,
      "ili": 8656,
      "pu": 8657,
      "may": 8658,
      "ysi": 8659,
      "{(": 8660,
      "eqn": 8661,
      "position": 8662,
      "cond": 8663,
      "parameters": 8664,
      "most": 8665,
      "40": 8666,
      "err": 8667,
      "$$": 8668,
      "velo": 8669,
      "task": 8670,
      "back": 8671,
      "well": 8672,
      "deno": 8673,
      "Al": 8674,
      "metric": 8675,
      "go": 8676,
      "paper": 8677,
      "information": 8678,
      "distribution": 8679,
      ")=": 8680,
      "ast": 8681,
      "algorithm": 8682,
      "Eq": 8683,
      "antum": 8684,
      "bu": 8685,
      "local": 8686,
      "33": 8687,
      "effici": 8688,
      "shown": 8689,
      "mula": 8690,
      "df": 8691,
      "block": 8692,
      "been": 8693,
      "search": 8694,
      "problem": 8695,
      "title": 8696,
      "26": 8697,
      "av": 8698,
      "t_": 8699,
      "urther": 8700,
      "dynam": 8701,
      "bed": 8702,
      "vec": 8703,
      "caption": 8704,
      "methods": 8705,
      "ue": 8706,
      "f_": 8707,
      "rough": 8708,
      "rence": 8709,
      "real": 8710,
      "test": 8711,
      "tur": 8712,
      "lis": 8713,
      "stand": 8714,
      "ual": 8715,
      "sets": 8716,
      "fy": 8717,
      "defined": 8718,
      "ctively": 8719,
      "cre": 8720,
      "However": 8721,
      "vector": 8722,
      "incre": 8723,
      "d_": 8724,
      "regi": 8725,
      "code": 8726,
      "classi": 8727,
      "operator": 8728,
      "75": 8729,
      "ai": 8730,
      "med": 8731,
      "mes": 8732,
      "super": 8733,
      "varphi": 8734,
      ".\\": 8735,
      "90": 8736,
      "act": 8737,
      "old": 8738,
      "proper": 8739,
      "while": 8740,
      "group": 8741,
      "sty": 8742,
      "dete": 8743,
      "utions": 8744,
      "descri": 8745,
      "2018": 8746,
      "ero": 8747,
      "int_": 8748,
      "figure": 8749,
      "2023": 8750,
      "include": 8751,
      "langle": 8752,
      "Ex": 8753,
      "lic": 8754,
      "part": 8755,
      "appa": 8756,
      "prob": 8757,
      "Then": 8758,
      "abla": 8759,
      "ural": 8760,
      "phase": 8761,
      "ically": 8762,
      "char": 8763,
      "wer": 8764,
      "cs": 8765,
      "ner": 8766,
      "28": 8767,
      "If": 8768,
      "com": 8769,
      "kappa": 8770,
      "rightarrow": 8771,
      "ep": 8772,
      "represen": 8773,
      "normal": 8774,
      "}).": 8775,
      "vare": 8776,
      "nabla": 8777,
      "level": 8778,
      "similar": 8779,
      "plan": 8780,
      "ove": 8781,
      "flu": 8782,
      "}}$": 8783,
      "ysis": 8784,
      "tained": 8785,
      "mid": 8786,
      "refore": 8787,
      "{}": 8788,
      "als": 8789,
      "tom": 8790,
      "requi": 8791,
      "45": 8792,
      "measure": 8793,
      "ross": 8794,
      "pdf": 8795,
      "fil": 8796,
      "circ": 8797,
      "ration": 8798,
      "fied": 8799,
      "Figure": 8800,
      "T_": 8801,
      "varepsilon": 8802,
      "ple": 8803,
      "Phys": 8804,
      "intro": 8805,
      "21": 8806,
      "27": 8807,
      "follows": 8808,
      "amb": 8809,
      "An": 8810,
      "ative": 8811,
      "ency": 8812,
      "rent": 8813,
      ".}~\\": 8814,
      "60": 8815,
      "Sig": 8816,
      "duced": 8817,
      "He": 8818,
      "docum": 8819,
      "cau": 8820,
      "obje": 8821,
      "result": 8822,
      "estima": 8823,
      "//": 8824,
      "ors": 8825,
      "M_": 8826,
      "overline": 8827,
      "35": 8828,
      "95": 8829,
      "tent": 8830,
      "term": 8831,
      "like": 8832,
      "tiv": 8833,
      "80": 8834,
      "atter": 8835,
      "cer": 8836,
      "above": 8837,
      "class": 8838,
      "tations": 8839,
      "ice": 8840,
      "_s": 8841,
      "pack": 8842,
      "ength": 8843,
      "three": 8844,
      "Phi": 8845,
      "rand": 8846,
      "structure": 8847,
      "quantum": 8848,
      "SS": 8849,
      "mass": 8850,
      "Mo": 8851,
      "ates": 8852,
      "anti": 8853,
      "100": 8854,
      "image": 8855,
      "bit": 8856,
      "radi": 8857,
      "sum": 8858,
      "box": 8859,
      "contin": 8860,
      "consis": 8861,
      "clo": 8862,
      "ific": 8863,
      "mis": 8864,
      "nel": 8865,
      "))": 8866,
      "they": 8867,
      "asi": 8868,
      "P_": 8869,
      "C_": 8870,
      "process": 8871,
      "finite": 8872,
      "view": 8873,
      "ST": 8874,
      "proposed": 8875,
      "second": 8876,
      "os": 8877,
      "fter": 8878,
      "inst": 8879,
      "ies": 8880,
      "atures": 8881,
      "ev": 8882,
      "Uni": 8883,
      "98": 8884,
      "gen": 8885,
      "a_": 8886,
      "rol": 8887,
      "obtain": 8888,
      "sym": 8889,
      "por": 8890,
      "through": 8891,
      "Lamb": 8892,
      "style": 8893,
      "clu": 8894,
      "evalu": 8895,
      "add": 8896,
      "analysis": 8897,
      "ij": 8898,
      "Sigma": 8899,
      "E_": 8900,
      "97": 8901,
      "were": 8902,
      "respectively": 8903,
      "96": 8904,
      "Lambda": 8905,
      "2017": 8906,
      "condition": 8907,
      "lack": 8908,
      "doi": 8909,
      "48": 8910,
      "htt": 8911,
      "lemma": 8912,
      "ption": 8913,
      "ness": 8914,
      "document": 8915,
      "tran": 8916,
      "dra": 8917,
      "://": 8918,
      "scale": 8919,
      "const": 8920,
      "fer": 8921,
      "v_": 8922,
      "identi": 8923,
      "}}{": 8924,
      "supp": 8925,
      "face": 8926,
      "org": 8927,
      "defini": 8928,
      "zero": 8929,
      "calcu": 8930,
      "study": 8931,
      "approxi": 8932,
      "wn": 8933,
      "38": 8934,
      "ton": 8935,
      "dataset": 8936,
      "accu": 8937,
      "continu": 8938,
      "logy": 8939,
      "intera": 8940,
      "05": 8941,
      "pol": 8942,
      "gre": 8943,
      "ture": 8944,
      "king": 8945,
      "foot": 8946,
      "tential": 8947,
      "spl": 8948,
      "terms": 8949,
      "ks": 8950,
      "36": 8951,
      "N_": 8952,
      "conver": 8953,
      "density": 8954,
      "corresponding": 8955,
      "impro": 8956,
      "observ": 8957,
      "c_": 8958,
      "random": 8959,
      "max": 8960,
      "}\\\\": 8961,
      "cases": 8962,
      "single": 8963,
      "Theorem": 8964,
      "complex": 8965,
      "cell": 8966,
      "Me": 8967,
      "light": 8968,
      "obtained": 8969,
      "metry": 8970,
      "initial": 8971,
      "tics": 8972,
      "ared": 8973,
      "ough": 8974,
      "script": 8975,
      "satis": 8976,
      "frame": 8977,
      "Sh": 8978,
      "Section": 8979,
      "produ": 8980,
      "NN": 8981,
      "0000": 8982,
      "solution": 8983,
      "factor": 8984,
      "due": 8985,
      "Te": 8986,
      "states": 8987,
      "potential": 8988,
      "make": 8989,
      "37": 8990,
      "34": 8991,
      "sour": 8992,
      "S_": 8993,
      "s_": 8994,
      "sco": 8995,
      "que": 8996,
      "prime": 8997,
      "ldots": 8998,
      "addition": 8999,
      "fication": 9000,
      "tal": 9001,
      "indic": 9002,
      "discus": 9003,
      "n_": 9004,
      "lead": 9005,
      "}),": 9006,
      "compon": 9007,
      "gu": 9008,
      "soci": 9009,
      "points": 9010,
      "cause": 9011,
      "magne": 9012,
      "sive": 9013,
      "}-": 9014,
      "length": 9015,
      "strate": 9016,
      "A_": 9017,
      "systems": 9018,
      "functions": 9019,
      "type": 9020,
      "Wh": 9021,
      "possi": 9022,
      "k_": 9023,
      "loss": 9024,
      "/\\": 9025,
      "exten": 9026,
      "signific": 9027,
      "centering": 9028,
      "}},\\": 9029,
      "nonumber": 9030,
      "Univer": 9031,
      "vious": 9032,
      "input": 9033,
      "otimes": 9034,
      "son": 9035,
      "r_": 9036,
      "constra": 9037,
      "relation": 9038,
      "dependent": 9039,
      "split": 9040,
      "R_": 9041,
      "bin": 9042,
      "At": 9043,
      "By": 9044,
      "sele": 9045,
      "xed": 9046,
      "since": 9047,
      "mean": 9048,
      "acter": 9049,
      "eqnarray": 9050,
      "sition": 9051,
      "{{": 9052,
      "rop": 9053,
      "94": 9054,
      "year": 9055,
      "aris": 9056,
      "ress": 9057,
      "L_": 9058,
      "})$": 9059,
      "sel": 9060,
      "32": 9061,
      "En": 9062,
      "domain": 9063,
      "variable": 9064,
      "Li": 9065,
      "provide": 9066,
      "particular": 9067,
      "termin": 9068,
      "comb": 9069,
      "package": 9070,
      "control": 9071,
      "67": 9072,
      "graphics": 9073,
      "definition": 9074,
      "conne": 9075,
      "ian": 9076,
      ")}\\": 9077,
      "footnote": 9078,
      "bility": 9079,
      "ques": 9080,
      "\\!": 9081,
      "node": 9082,
      "bibfield": 9083,
      "zeta": 9084,
      "wr": 9085,
      "sor": 9086,
      "Rev": 9087,
      "g_": 9088,
      "bal": 9089,
      "tech": 9090,
      "Lem": 9091,
      "mental": 9092,
      "Net": 9093,
      "features": 9094,
      "\\[": 9095,
      "aver": 9096,
      "need": 9097,
      "wed": 9098,
      "ov": 9099,
      "shows": 9100,
      "maxi": 9101,
      "physi": 9102,
      "pair": 9103,
      "rest": 9104,
      "textr": 9105,
      "within": 9106,
      "gr": 9107,
      "textrm": 9108,
      "}+": 9109,
      "64": 9110,
      "ord": 9111,
      "does": 9112,
      "define": 9113,
      "65": 9114,
      "optim": 9115,
      "electr": 9116,
      "88": 9117,
      "Bib": 9118,
      "\\;": 9119,
      "spectr": 9120,
      "lower": 9121,
      "character": 9122,
      "Comp": 9123,
      "range": 9124,
      "]{\\": 9125,
      "frequ": 9126,
      "\\]": 9127,
      "would": 9128,
      "ism": 9129,
      "\\}": 9130,
      "graphy": 9131,
      "should": 9132,
      "($": 9133,
      "}^{(": 9134,
      "u_": 9135,
      "long": 9136,
      "Since": 9137,
      "off": 9138,
      "lies": 9139,
      "includegraphics": 9140,
      "spin": 9141,
      "increase": 9142,
      "Lemma": 9143,
      "~~": 9144,
      "full": 9145,
      "flow": 9146,
      "hand": 9147,
      "hyper": 9148,
      "cos": 9149,
      "$)": 9150,
      "coup": 9151,
      "corre": 9152,
      "sigma_": 9153,
      "volution": 9154,
      "ju": 9155,
      "ground": 9156,
      "significant": 9157,
      "after": 9158,
      "ward": 9159,
      "F_": 9160,
      "2016": 9161,
      "widetilde": 9162,
      "vir": 9163,
      "art": 9164,
      "equi": 9165,
      "70": 9166,
      "D_": 9167,
      "}=\\": 9168,
      "ish": 9169,
      "theory": 9170,
      "achie": 9171,
      "cing": 9172,
      "deta": 9173,
      "typ": 9174,
      "lat": 9175,
      "85": 9176,
      "constru": 9177,
      "contain": 9178,
      "orph": 9179,
      "}]": 9180,
      "ute": 9181,
      "images": 9182,
      "expe": 9183,
      "https": 9184,
      "Ad": 9185,
      "ler": 9186,
      "error": 9187,
      "igin": 9188,
      "cr": 9189,
      "tice": 9190,
      "calcula": 9191,
      "aligned": 9192,
      "van": 9193,
      "constant": 9194,
      "aff": 9195,
      "contrib": 9196,
      "side": 9197,
      "}|": 9198,
      "cri": 9199,
      "Table": 9200,
      "allow": 9201,
      "tre": 9202,
      "}^\\": 9203,
      "44": 9204,
      "black": 9205,
      "probability": 9206,
      "way": 9207,
      "analy": 9208,
      "fit": 9209,
      "cid": 9210,
      "play": 9211,
      "boun": 9212,
      "Therefore": 9213,
      "even": 9214,
      "find": 9215,
      "loc": 9216,
      "expres": 9217,
      "fore": 9218,
      ")^{": 9219,
      "lines": 9220,
      "ker": 9221,
      "map": 9222,
      "tu": 9223,
      "lar": 9224,
      "dag": 9225,
      "path": 9226,
      "frak": 9227,
      "sions": 9228,
      "extra": 9229,
      "power": 9230,
      "$^{": 9231,
      "applic": 9232,
      "geo": 9233,
      "texttt": 9234,
      "page": 9235,
      ")=\\": 9236,
      "hi": 9237,
      "sequence": 9238,
      "every": 9239,
      "mod": 9240,
      "Our": 9241,
      "****": 9242,
      "lue": 9243,
      "step": 9244,
      "origin": 9245,
      "quality": 9246,
      "verse": 9247,
      "est": 9248,
      "current": 9249,
      "ices": 9250,
      "AS": 9251,
      "ax": 9252,
      "targe": 9253,
      "ay": 9254,
      "ox": 9255,
      "subset": 9256,
      "II": 9257,
      "ub": 9258,
      "B_": 9259,
      "ctly": 9260,
      "dual": 9261,
      "Ver": 9262,
      "More": 9263,
      "further": 9264,
      "itu": 9265,
      "uster": 9266,
      "vers": 9267,
      "These": 9268,
      "pen": 9269,
      "AR": 9270,
      "las": 9271,
      "fact": 9272,
      "Note": 9273,
      "draw": 9274,
      "ii": 9275,
      "ial": 9276,
      "ently": 9277,
      "01": 9278,
      "duction": 9279,
      "them": 9280,
      "volu": 9281,
      "29": 9282,
      "previous": 9283,
      "V_": 9284,
      "$(\\": 9285,
      "quanti": 9286,
      "war": 9287,
      "bot": 9288,
      "sf": 9289,
      "ography": 9290,
      "higher": 9291,
      "limit": 9292,
      "77": 9293,
      "read": 9294,
      "On": 9295,
      "cle": 9296,
      "down": 9297,
      "found": 9298,
      "uring": 9299,
      "}+\\": 9300,
      ".}\\": 9301,
      "Bibitem": 9302,
      "66": 9303,
      "cting": 9304,
      "contra": 9305,
      "layer": 9306,
      "X_": 9307,
      "vert": 9308,
      "EEE": 9309,
      "sian": 9310,
      "refe": 9311,
      "key": 9312,
      "H_": 9313,
      "href": 9314,
      "many": 9315,
      "ok": 9316,
      "================": 9317,
      "Be": 9318,
      "})\\": 9319,
      "present": 9320,
      "ket": 9321,
      "IEEE": 9322,
      "vspace": 9323,
      "Di": 9324,
      "istic": 9325,
      "determin": 9326,
      "$}": 9327,
      "04": 9328,
      "scen": 9329,
      "mathfrak": 9330,
      "import": 9331,
      "noise": 9332,
      "Thus": 9333,
      "compo": 9334,
      "known": 9335,
      "2015": 9336,
      "temper": 9337,
      "total": 9338,
      "because": 9339,
      "magnetic": 9340,
      "Ne": 9341,
      "tivity": 9342,
      "itemize": 9343,
      "newblock": 9344,
      "}-\\": 9345,
      "strong": 9346,
      "endi": 9347,
      "observed": 9348,
      "ER": 9349,
      "ditions": 9350,
      "University": 9351,
      "stit": 9352,
      "cdots": 9353,
      "(-": 9354,
      "logical": 9355,
      "gal": 9356,
      "asy": 9357,
      "uld": 9358,
      "diff": 9359,
      "possible": 9360,
      "}:": 9361,
      "change": 9362,
      "55": 9363,
      "ken": 9364,
      "signal": 9365,
      "simp": 9366,
      "blue": 9367,
      "Po": 9368,
      "without": 9369,
      "lambda_": 9370,
      "arg": 9371,
      "could": 9372,
      "widehat": 9373,
      "93": 9374,
      "optimal": 9375,
      "mulation": 9376,
      "related": 9377,
      "Lo": 9378,
      "norm": 9379,
      "68": 9380,
      "get": 9381,
      "medi": 9382,
      "racy": 9383,
      "ide": 9384,
      "tically": 9385,
      "positive": 9386,
      "band": 9387,
      "jo": 9388,
      "short": 9389,
      "dimensional": 9390,
      "numer": 9391,
      "sin": 9392,
      "poly": 9393,
      "volume": 9394,
      "rho_": 9395,
      "feature": 9396,
      "${\\": 9397,
      "AC": 9398,
      "cluster": 9399,
      "bor": 9400,
      "Le": 9401,
      "citet": 9402,
      "conditions": 9403,
      "associ": 9404,
      "Psi": 9405,
      "proje": 9406,
      "properties": 9407,
      "develo": 9408,
      "ada": 9409,
      "AT": 9410,
      "beha": 9411,
      "action": 9412,
      "city": 9413,
      "angu": 9414,
      "endix": 9415,
      "prop": 9416,
      "sti": 9417,
      "about": 9418,
      "mentation": 9419,
      "minim": 9420,
      "computation": 9421,
      "bre": 9422,
      "setting": 9423,
      "dered": 9424,
      "78": 9425,
      "date": 9426,
      "clare": 9427,
      "MS": 9428,
      "iel": 9429,
      "bibli": 9430,
      "self": 9431,
      "##": 9432,
      "clear": 9433,
      "studi": 9434,
      "distance": 9435,
      "free": 9436,
      "mption": 9437,
      "generated": 9438,
      "indent": 9439,
      "ML": 9440,
      "who": 9441,
      "So": 9442,
      "Tr": 9443,
      "wise": 9444,
      "thus": 9445,
      "source": 9446,
      "place": 9447,
      "qquad": 9448,
      "Or": 9449,
      "|}{": 9450,
      "simula": 9451,
      "AP": 9452,
      "demon": 9453,
      "pose": 9454,
      "ledge": 9455,
      "wave": 9456,
      "proces": 9457,
      "}}{\\": 9458,
      "SI": 9459,
      "divi": 9460,
      "Da": 9461,
      "--------------------------------": 9462,
      "behavi": 9463,
      ")}{": 9464,
      "cus": 9465,
      "dynamics": 9466,
      "specific": 9467,
      "boundary": 9468,
      "rid": 9469,
      "amp": 9470,
      "alpha_": 9471,
      "mu_": 9472,
      "ference": 9473,
      "Sci": 9474,
      "br": 9475,
      "bibliography": 9476,
      "G_": 9477,
      "modu": 9478,
      "check": 9479,
      "relations": 9480,
      "standard": 9481,
      "]$": 9482,
      "maxim": 9483,
      "hed": 9484,
      "exists": 9485,
      "enco": 9486,
      "ision": 9487,
      "kes": 9488,
      "sto": 9489,
      "ational": 9490,
      "AN": 9491,
      "47": 9492,
      "Ga": 9493,
      "Declare": 9494,
      "y_": 9495,
      "fixed": 9496,
      "ist": 9497,
      "auto": 9498,
      "ick": 9499,
      "...": 9500,
      "cup": 9501,
      "imple": 9502,
      ");": 9503,
      "03": 9504,
      "abstra": 9505,
      "eps": 9506,
      "GP": 9507,
      "i_": 9508,
      "develop": 9509,
      "cross": 9510,
      "^+": 9511,
      "Fin": 9512,
      "framework": 9513,
      "effect": 9514,
      "inde": 9515,
      "ns": 9516,
      "ordin": 9517,
      "scriptsize": 9518,
      "&&": 9519,
      "Sta": 9520,
      "accuracy": 9521,
      "lying": 9522,
      "I_": 9523,
      "]\\": 9524,
      "average": 9525,
      "mer": 9526,
      "research": 9527,
      "gate": 9528,
      "sses": 9529,
      "2014": 9530,
      "cept": 9531,
      "target": 9532,
      "enumer": 9533,
      "usepackage": 9534,
      "trained": 9535,
      "sho": 9536,
      "h_": 9537,
      "newtheorem": 9538,
      "La": 9539,
      "\\,\\": 9540,
      "lied": 9541,
      "08": 9542,
      "Res": 9543,
      "maps": 9544,
      "oth": 9545,
      "dagger": 9546,
      "CO": 9547,
      "neq": 9548,
      "gence": 9549,
      "ils": 9550,
      "rati": 9551,
      "ings": 9552,
      "ances": 9553,
      "bul": 9554,
      "simple": 9555,
      "below": 9556,
      "region": 9557,
      "occ": 9558,
      "equations": 9559,
      "frequency": 9560,
      "cture": 9561,
      "channel": 9562,
      "theta_": 9563,
      "bigg": 9564,
      "Au": 9565,
      "Here": 9566,
      "head": 9567,
      "separ": 9568,
      "LM": 9569,
      ")-": 9570,
      "gram": 9571,
      "samples": 9572,
      "02": 9573,
      "31": 9574,
      "igen": 9575,
      "{#": 9576,
      "formed": 9577,
      "sche": 9578,
      "temperature": 9579,
      "measu": 9580,
      "run": 9581,
      "independent": 9582,
      "ben": 9583,
      "|^": 9584,
      "via": 9585,
      "DE": 9586,
      "formula": 9587,
      "nat": 9588,
      "b_": 9589,
      "asing": 9590,
      "compared": 9591,
      "edge": 9592,
      "textcolor": 9593,
      "coeffici": 9594,
      "\\(": 9595,
      "textwidth": 9596,
      "usion": 9597,
      "equival": 9598,
      "comes": 9599,
      "though": 9600,
      "tasks": 9601,
      "viron": 9602,
      "relative": 9603,
      "87": 9604,
      "chang": 9605,
      "ali": 9606,
      "cref": 9607,
      "enumerate": 9608,
      "datasets": 9609,
      "multiple": 9610,
      "call": 9611,
      "experiments": 9612,
      "artic": 9613,
      "abstract": 9614,
      "remain": 9615,
      "itera": 9616,
      "ented": 9617,
      "integra": 9618,
      "App": 9619,
      "Qu": 9620,
      "surface": 9621,
      "deg": 9622,
      "Wi": 9623,
      "embed": 9624,
      "better": 9625,
      "06": 9626,
      "pan": 9627,
      "mechan": 9628,
      ":=": 9629,
      "representation": 9630,
      "}}(": 9631,
      "condu": 9632,
      "noindent": 9633,
      "loy": 9634,
      "e_": 9635,
      "07": 9636,
      "Un": 9637,
      "bs": 9638,
      "output": 9639,
      "glo": 9640,
      "approxima": 9641,
      "92": 9642,
      "improve": 9643,
      "abs": 9644,
      "onal": 9645,
      "mode": 9646,
      "must": 9647,
      "IS": 9648,
      "denote": 9649,
      "conf": 9650,
      "design": 9651,
      "arison": 9652,
      "ants": 9653,
      "words": 9654,
      "appe": 9655,
      "mic": 9656,
      "cost": 9657,
      "during": 9658,
      "resol": 9659,
      "PS": 9660,
      "rac": 9661,
      "eigen": 9662,
      "dri": 9663,
      "\\}$": 9664,
      "along": 9665,
      "those": 9666,
      "stric": 9667,
      "stead": 9668,
      "syn": 9669,
      "associated": 9670,
      ")}$": 9671,
      "plo": 9672,
      "IR": 9673,
      "z_": 9674,
      "car": 9675,
      "cording": 9676,
      "langu": 9677,
      "conclu": 9678,
      "being": 9679,
      "og": 9680,
      "hspace": 9681,
      "detection": 9682,
      "Further": 9683,
      "deri": 9684,
      "multirow": 9685,
      ")(": 9686,
      "assume": 9687,
      "partial_": 9688,
      "gebra": 9689,
      "texts": 9690,
      "final": 9691,
      "($\\": 9692,
      "46": 9693,
      "environ": 9694,
      "2013": 9695,
      "cate": 9696,
      "nega": 9697,
      "q_": 9698,
      ")]": 9699,
      "moment": 9700,
      "scenari": 9701,
      "cli": 9702,
      "homo": 9703,
      "match": 9704,
      "inves": 9705,
      "verb": 9706,
      "73": 9707,
      "four": 9708,
      "unit": 9709,
      "variant": 9710,
      "important": 9711,
      "regular": 9712,
      "including": 9713,
      "underline": 9714,
      "phi_": 9715,
      "86": 9716,
      "omega_": 9717,
      "tention": 9718,
      "pages": 9719,
      "aila": 9720,
      "iliation": 9721,
      "best": 9722,
      "come": 9723,
      "open": 9724,
      "ited": 9725,
      "port": 9726,
      "techni": 9727,
      "Spe": 9728,
      "version": 9729,
      "various": 9730,
      "delta_": 9731,
      "limits": 9732,
      "DM": 9733,
      "larger": 9734,
      "ei": 9735,
      "mar": 9736,
      "scr": 9737,
      "ters": 9738,
      "fac": 9739,
      "context": 9740,
      "CC": 9741,
      "cha": 9742,
      "eous": 9743,
      "tack": 9744,
      "weak": 9745,
      "effective": 9746,
      "84": 9747,
      "atch": 9748,
      "gies": 9749,
      "true": 9750,
      "itude": 9751,
      "axi": 9752,
      "holds": 9753,
      "ee": 9754,
      "gamma_": 9755,
      "ill": 9756,
      "implies": 9757,
      "Moreover": 9758,
      "rele": 9759,
      "tau_": 9760,
      "76": 9761,
      "39": 9762,
      "ris": 9763,
      "remark": 9764,
      "coupling": 9765,
      "2_": 9766,
      "considered": 9767,
      "weigh": 9768,
      "fies": 9769,
      "subsubsection": 9770,
      "Physi": 9771,
      "algebra": 9772,
      "ati": 9773,
      "coordin": 9774,
      "explo": 9775,
      "ins": 9776,
      "K_": 9777,
      "w_": 9778,
      "generate": 9779,
      "ult": 9780,
      "dia": 9781,
      "complete": 9782,
      "hal": 9783,
      "74": 9784,
      "uman": 9785,
      "prec": 9786,
      "pping": 9787,
      "estimate": 9788,
      "appear": 9789,
      "uting": 9790,
      "IN": 9791,
      "mbox": 9792,
      "reas": 9793,
      "hold": 9794,
      "mini": 9795,
      "}{{\\": 9796,
      "tor": 9797,
      "smo": 9798,
      "networks": 9799,
      "solutions": 9800,
      "continuous": 9801,
      "io": 9802,
      "period": 9803,
      "negative": 9804,
      "you": 9805,
      "gly": 9806,
      "\\&": 9807,
      "}\\,": 9808,
      "approx": 9809,
      "availa": 9810,
      "AM": 9811,
      "veral": 9812,
      "__": 9813,
      "Sch": 9814,
      "91": 9815,
      "*{": 9816,
      "tern": 9817,
      "56": 9818,
      "variance": 9819,
      "xt": 9820,
      "seg": 9821,
      "thms": 9822,
      "gradi": 9823,
      "unicode": 9824,
      "direction": 9825,
      "shap": 9826,
      "2012": 9827,
      "investi": 9828,
      "SP": 9829,
      "chall": 9830,
      "glyph": 9831,
      "Theta": 9832,
      "variables": 9833,
      "summ": 9834,
      "respect": 9835,
      "global": 9836,
      "velocity": 9837,
      "tounicode": 9838,
      "glyphtounicode": 9839,
      "physical": 9840,
      "Zh": 9841,
      "pdfglyphtounicode": 9842,
      "ratio": 9843,
      "colle": 9844,
      "last": 9845,
      "\\'": 9846,
      "aga": 9847,
      "ron": 9848,
      "diag": 9849,
      "described": 9850,
      "close": 9851,
      "{$": 9852,
      "A0": 9853,
      "};": 9854,
      "discre": 9855,
      "Su": 9856,
      "cover": 9857,
      "squ": 9858,
      "construction": 9859,
      "x_1": 9860,
      "evolution": 9861,
      "interest": 9862,
      "bas": 9863,
      "Data": 9864,
      "difference": 9865,
      "proce": 9866,
      "pic": 9867,
      "para": 9868,
      "certain": 9869,
      "ose": 9870,
      "oll": 9871,
      "fine": 9872,
      "Q_": 9873,
      "IC": 9874,
      "affiliation": 9875,
      "spatial": 9876,
      "plane": 9877,
      "Model": 9878,
      "Finally": 9879,
      "just": 9880,
      "vo": 9881,
      "require": 9882,
      "Cor": 9883,
      "mathsf": 9884,
      "89": 9885,
      "statis": 9886,
      "transition": 9887,
      "pertur": 9888,
      "motion": 9889,
      "symmetry": 9890,
      "tative": 9891,
      "consistent": 9892,
      "har": 9893,
      "original": 9894,
      "'$": 9895,
      "}{*": 9896,
      "Gaus": 9897,
      "minus": 9898,
      "U_": 9899,
      "spect": 9900,
      "\\{\\": 9901,
      "43": 9902,
      "components": 9903,
      "component": 9904,
      "topo": 9905,
      "optimization": 9906,
      "deca": 9907,
      "still": 9908,
      "near": 9909,
      "additional": 9910,
      "prof": 9911,
      "fill": 9912,
      "flo": 9913,
      "00A0": 9914,
      ")+": 9915,
      "With": 9916,
      "particle": 9917,
      "Open": 9918,
      "stre": 9919,
      "neural": 9920,
      "language": 9921,
      "deep": 9922,
      "zed": 9923,
      "authors": 9924,
      "^{-\\": 9925,
      "yiel": 9926,
      "57": 9927,
      "sup": 9928,
      "inci": 9929,
      "Sim": 9930,
      "teri": 9931,
      "applied": 9932,
      "Vert": 9933,
      "prediction": 9934,
      "weight": 9935,
      "deriv": 9936,
      "tence": 9937,
      "alle": 9938,
      "maximum": 9939,
      "upper": 9940,
      "midrule": 9941,
      "series": 9942,
      "ences": 9943,
      "ging": 9944,
      "uture": 9945,
      "enh": 9946,
      "across": 9947,
      "Proposition": 9948,
      "bottom": 9949,
      "decre": 9950,
      "Ham": 9951,
      "AI": 9952,
      "presented": 9953,
      "When": 9954,
      "interaction": 9955,
      "break": 9956,
      "comparison": 9957,
      "knowledge": 9958,
      "49": 9959,
      "={": 9960,
      "pas": 9961,
      "degree": 9962,
      "combin": 9963,
      "embedding": 9964,
      "url": 9965,
      "commun": 9966,
      "ways": 9967,
      "tices": 9968,
      "110": 9969,
      "called": 9970,
      "user": 9971,
      "83": 9972,
      "means": 9973,
      "teq": 9974,
      "classification": 9975,
      "late": 9976,
      "available": 9977,
      "algorithms": 9978,
      "config": 9979,
      "equiv": 9980,
      "dd": 9981,
      "elements": 9982,
      "Ap": 9983,
      "ensure": 9984,
      "ential": 9985,
      "several": 9986,
      "izing": 9987,
      "NR": 9988,
      "seen": 9989,
      "pmatrix": 9990,
      "W_": 9991,
      "$\\{": 9992,
      "hel": 9993,
      "fields": 9994,
      "SM": 9995,
      "neu": 9996,
      "ext": 9997,
      "numerical": 9998,
      "tun": 9999,
      "Hence": 10000,
      "gges": 10001,
      "around": 10002,
      "valid": 10003,
      "pub": 10004,
      "works": 10005,
      "expected": 10006,
      "shi": 10007,
      "object": 10008,
      "ID": 10009,
      "matic": 10010,
      "42": 10011,
      "effects": 10012,
      "63": 10013,
      "take": 10014,
      "attention": 10015,
      "Math": 10016,
      "uti": 10017,
      "}^{-": 10018,
      "'\\": 10019,
      "PR": 10020,
      ",-": 10021,
      "element": 10022,
      "electron": 10023,
      "ond": 10024,
      "ino": 10025,
      "uniform": 10026,
      "robu": 10027,
      "dence": 10028,
      "least": 10029,
      "plus": 10030,
      "reference": 10031,
      "spectrum": 10032,
      "robust": 10033,
      "sugges": 10034,
      "ropy": 10035,
      "before": 10036,
      "ef": 10037,
      "3D": 10038,
      "58": 10039,
      "invol": 10040,
      "Sup": 10041,
      "ilton": 10042,
      "article": 10043,
      "refer": 10044,
      "fically": 10045,
      "iso": 10046,
      "recent": 10047,
      "beta_": 10048,
      "ry": 10049,
      "emis": 10050,
      "bounded": 10051,
      "either": 10052,
      "colon": 10053,
      "link": 10054,
      "[{\\": 10055,
      "understand": 10056,
      "configu": 10057,
      "index": 10058,
      "ht": 10059,
      "assumption": 10060,
      "FT": 10061,
      "LP": 10062,
      "joint": 10063,
      "54": 10064,
      "2011": 10065,
      "display": 10066,
      "simulation": 10067,
      "Pi": 10068,
      "observations": 10069,
      "79": 10070,
      "There": 10071,
      "correlation": 10072,
      "vity": 10073,
      "approximation": 10074,
      "One": 10075,
      "subf": 10076,
      "fying": 10077,
      "Ge": 10078,
      "modi": 10079,
      "ible": 10080,
      "archite": 10081,
      "x_i": 10082,
      "seteq": 10083,
      "behavior": 10084,
      "polar": 10085,
      "2010": 10086,
      "SA": 10087,
      "simulations": 10088,
      "utili": 10089,
      "classical": 10090,
      "First": 10091,
      "Ar": 10092,
      "integr": 10093,
      "Gi": 10094,
      "indivi": 10095,
      "ral": 10096,
      "much": 10097,
      "From": 10098,
      "TeX": 10099,
      "prove": 10100,
      "problems": 10101,
      "09": 10102,
      "serv": 10103,
      "reason": 10104,
      "$|": 10105,
      "lish": 10106,
      "suffici": 10107,
      "my": 10108,
      "she": 10109,
      "equal": 10110,
      "basis": 10111,
      "mail": 10112,
      "):": 10113,
      "SE": 10114,
      "phot": 10115,
      "tru": 10116,
      "dt": 10117,
      "Gaussian": 10118,
      "directly": 10119,
      "Gra": 10120,
      "stable": 10121,
      "smooth": 10122,
      "cccc": 10123,
      "transform": 10124,
      "critical": 10125,
      "ollary": 10126,
      "visual": 10127,
      "what": 10128,
      "Xiv": 10129,
      "employ": 10130,
      "ww": 10131,
      "remo": 10132,
      "---": 10133,
      "samp": 10134,
      "approaches": 10135,
      "next": 10136,
      "',": 10137,
      "72": 10138,
      "conve": 10139,
      "patter": 10140,
      "construct": 10141,
      "Atlas": 10142,
      "nodes": 10143,
      "}$^\\": 10144,
      "represent": 10145,
      "adap": 10146,
      "82": 10147,
      "writ": 10148,
      "plicit": 10149,
      "convergence": 10150,
      "Z_": 10151,
      "sof": 10152,
      "count": 10153,
      "occur": 10154,
      "69": 10155,
      "product": 10156,
      "necess": 10157,
      "Orcid": 10158,
      "Hamilton": 10159,
      "Furthermore": 10160,
      "CL": 10161,
      "pul": 10162,
      "%%%": 10163,
      "J_": 10164,
      "uses": 10165,
      "arXiv": 10166,
      "perturb": 10167,
      "spectral": 10168,
      "cti": 10169,
      "contains": 10170,
      "AtlasOrcid": 10171,
      "Ro": 10172,
      "cei": 10173,
      "ilities": 10174,
      "subseteq": 10175,
      "relev": 10176,
      "fully": 10177,
      "address": 10178,
      "desi": 10179,
      "illu": 10180,
      "nomi": 10181,
      "$[": 10182,
      "resulting": 10183,
      ")}{\\": 10184,
      "details": 10185,
      "gradient": 10186,
      "therefore": 10187,
      "dynamic": 10188,
      "theore": 10189,
      "flux": 10190,
      "ased": 10191,
      "instance": 10192,
      "\\)": 10193,
      "tan": 10194,
      "future": 10195,
      "~$": 10196,
      "sep": 10197,
      "rr": 10198,
      "na": 10199,
      "zh": 10200,
      "attack": 10201,
      "41": 10202,
      "52": 10203,
      "dev": 10204,
      "force": 10205,
      "redu": 10206,
      "53": 10207,
      "62": 10208,
      "^-": 10209,
      "gives": 10210,
      "constraints": 10211,
      "provides": 10212,
      "vac": 10213,
      "Delta_": 10214,
      "counter": 10215,
      "py": 10216,
      "setminus": 10217,
      "51": 10218,
      "neigh": 10219,
      "connected": 10220,
      "MC": 10221,
      "ado": 10222,
      "neutr": 10223,
      "parti": 10224,
      "linewidth": 10225,
      "unique": 10226,
      "Using": 10227,
      ")|": 10228,
      "write": 10229,
      "psi_": 10230,
      "studies": 10231,
      "describe": 10232,
      "demonstra": 10233,
      "polynomi": 10234,
      "generation": 10235,
      "scheme": 10236,
      "ages": 10237,
      "ln": 10238,
      "gap": 10239,
      "RE": 10240,
      "edu": 10241,
      "\\|\\": 10242,
      "composition": 10243,
      "Dis": 10244,
      "tik": 10245,
      "2009": 10246,
      "types": 10247,
      "vertex": 10248,
      "81": 10249,
      "cial": 10250,
      "MA": 10251,
      "smaller": 10252,
      "explicit": 10253,
      ")}}": 10254,
      ";\\": 10255,
      "experimental": 10256,
      "compute": 10257,
      "<\\": 10258,
      "][": 10259,
      "provided": 10260,
      "wards": 10261,
      "}&": 10262,
      "natural": 10263,
      "reco": 10264,
      "fam": 10265,
      "applications": 10266,
      "skip": 10267,
      "Col": 10268,
      "tag": 10269,
      "cep": 10270,
      "support": 10271,
      "renewcommand": 10272,
      "evaluation": 10273,
      "estimation": 10274,
      "59": 10275,
      "human": 10276,
      "forall": 10277,
      "axis": 10278,
      "required": 10279,
      "lated": 10280,
      "),\\": 10281,
      "rank": 10282,
      "uted": 10283,
      "train": 10284,
      "Trans": 10285,
      "vised": 10286,
      "land": 10287,
      "scalar": 10288,
      "anced": 10289,
      "operators": 10290,
      "expon": 10291,
      "pi_": 10292,
      "Ac": 10293,
      "].": 10294,
      "expan": 10295,
      "polic": 10296,
      "cannot": 10297,
      "{$\\": 10298,
      "prac": 10299,
      "allows": 10300,
      "dec": 10301,
      "documentclass": 10302,
      "rary": 10303,
      "hor": 10304,
      "introduce": 10305,
      "&$": 10306,
      "matter": 10307,
      "orbit": 10308,
      "ampl": 10309,
      "numbers": 10310,
      "paragraph": 10311,
      "Omega_": 10312,
      "increasing": 10313,
      "approximate": 10314,
      "mit": 10315,
      "hard": 10316,
      ")\\\\": 10317,
      "tensor": 10318,
      "domin": 10319,
      "symmetric": 10320,
      "momentum": 10321,
      "mc": 10322,
      "interval": 10323,
      "Stop": 10324,
      "buil": 10325,
      "sampling": 10326,
      "proposition": 10327,
      "stack": 10328,
      "suc": 10329,
      "morph": 10330,
      "expla": 10331,
      "pse": 10332,
      ":}": 10333,
      "Bo": 10334,
      "ia": 10335,
      "CD": 10336,
      "perp": 10337,
      "pur": 10338,
      "]}": 10339,
      "SO": 10340,
      "dx": 10341,
      "PhysRev": 10342,
      "event": 10343,
      "While": 10344,
      "regions": 10345,
      "71": 10346,
      "denotes": 10347,
      "gas": 10348,
      "lattice": 10349,
      "eta_": 10350,
      "examples": 10351,
      "layers": 10352,
      "tro": 10353,
      "tikz": 10354,
      "}'": 10355,
      "Physics": 10356,
      "score": 10357,
      "],": 10358,
      "particles": 10359,
      "propose": 10360,
      "according": 10361,
      "Ref": 10362,
      "experiment": 10363,
      "ety": 10364,
      "State": 10365,
      "loop": 10366,
      "restric": 10367,
      "Science": 10368,
      "whe": 10369,
      "Fe": 10370,
      "lan": 10371,
      "Equ": 10372,
      "CP": 10373,
      "good": 10374,
      "measurements": 10375,
      "environment": 10376,
      "Shut": 10377,
      "fr": 10378,
      "oral": 10379,
      "distributions": 10380,
      "suppor": 10381,
      "BibitemOpen": 10382,
      "curve": 10383,
      "choice": 10384,
      "thema": 10385,
      "stability": 10386,
      "focus": 10387,
      "Pa": 10388,
      "jector": 10389,
      "argum": 10390,
      "BibitemShut": 10391,
      "accurate": 10392,
      "paralle": 10393,
      "file": 10394,
      "margin": 10395,
      "ample": 10396,
      "resolution": 10397,
      ")^{\\": 10398,
      "objects": 10399,
      "Y_": 10400,
      "represents": 10401,
      "Appendix": 10402,
      "plot": 10403,
      "IM": 10404,
      "mention": 10405,
      "significantly": 10406,
      "peak": 10407,
      "equivalent": 10408,
      "NoStop": 10409,
      "ators": 10410,
      "grow": 10411,
      "reach": 10412,
      "61": 10413,
      "sch": 10414,
      "bmatrix": 10415,
      "thres": 10416,
      "vectors": 10417,
      "tage": 10418,
      "dou": 10419,
      "inequality": 10420,
      "})}\\": 10421,
      "kernel": 10422,
      "review": 10423,
      "becomes": 10424,
      "Car": 10425,
      "property": 10426,
      "pn": 10427,
      "compare": 10428,
      "communic": 10429,
      "mpto": 10430,
      "Hamiltonian": 10431,
      "ines": 10432,
      "emission": 10433,
      "fraction": 10434,
      "relevant": 10435,
      "mathscr": 10436,
      "}}(\\": 10437,
      "l_": 10438,
      "refle": 10439,
      "ression": 10440,
      "compact": 10441,
      "modes": 10442,
      "introduced": 10443,
      "win": 10444,
      "matr": 10445,
      "stars": 10446,
      "ones": 10447,
      "structures": 10448,
      "forward": 10449,
      "sensi": 10450,
      "signed": 10451,
      "Similar": 10452,
      "All": 10453,
      "ko": 10454,
      "tional": 10455,
      "issu": 10456,
      "empty": 10457,
      "graphs": 10458,
      "prior": 10459,
      "instead": 10460,
      "interpre": 10461,
      "strategy": 10462,
      "AB": 10463,
      "complexity": 10464,
      "}{*}{": 10465,
      "radius": 10466,
      "ying": 10467,
      "ina": 10468,
      "impact": 10469,
      "bro": 10470,
      "manif": 10471,
      "background": 10472,
      "SC": 10473,
      "*}[": 10474,
      "mach": 10475,
      "ba": 10476,
      "few": 10477,
      "categ": 10478,
      "satisfies": 10479,
      "shape": 10480,
      "groups": 10481,
      "^{+": 10482,
      "ged": 10483,
      "procedu": 10484,
      "dro": 10485,
      "dependence": 10486,
      "formal": 10487,
      "Sec": 10488,
      "Now": 10489,
      "ash": 10490,
      "inten": 10491,
      "%%%%%%%%%%%%%%%%%%%%%%%%%%%%%%%%%%%%%%%%%%%%%%%%%%%%%%%%%%%%%%%%": 10492,
      "trajector": 10493,
      "subfig": 10494,
      "Do": 10495,
      "invariant": 10496,
      "0002": 10497,
      "2008": 10498,
      "depth": 10499,
      "observe": 10500,
      "eli": 10501,
      "agent": 10502,
      "performed": 10503,
      "coefficients": 10504,
      "cies": 10505,
      "Cref": 10506,
      "closed": 10507,
      "AG": 10508,
      "discussed": 10509,
      "ily": 10510,
      "Given": 10511,
      "hib": 10512,
      "trivi": 10513,
      "operatorname": 10514,
      "omorph": 10515,
      "********": 10516,
      "oid": 10517,
      "int_0": 10518,
      "module": 10519,
      "apply": 10520,
      "popu": 10521,
      "shift": 10522,
      "tational": 10523,
      "LE": 10524,
      "determined": 10525,
      "promp": 10526,
      "whether": 10527,
      "steps": 10528,
      "panel": 10529,
      "scatter": 10530,
      "seman": 10531,
      "aren": 10532,
      "list": 10533,
      "therm": 10534,
      ")}(": 10535,
      "Si": 10536,
      "ilib": 10537,
      "learn": 10538,
      "Gamma_": 10539,
      "ready": 10540,
      "iled": 10541,
      "textsc": 10542,
      "location": 10543,
      "calculated": 10544,
      "law": 10545,
      "start": 10546,
      "bran": 10547,
      "direct": 10548,
      "RL": 10549,
      "puts": 10550,
      "conven": 10551,
      "requires": 10552,
      "hence": 10553,
      "Ob": 10554,
      "DP": 10555,
      "efficient": 10556,
      "increases": 10557,
      "convex": 10558,
      "core": 10559,
      "common": 10560,
      "prod_": 10561,
      ")},": 10562,
      "whose": 10563,
      "inner": 10564,
      "interactions": 10565,
      "gation": 10566,
      "rier": 10567,
      "minimum": 10568,
      "ition": 10569,
      "llar": 10570,
      "Oper": 10571,
      ")^{-": 10572,
      "edges": 10573,
      "St": 10574,
      "changes": 10575,
      "measurement": 10576,
      "Lett": 10577,
      "computational": 10578,
      "techniques": 10579,
      "matrices": 10580,
      "transfer": 10581,
      "Per": 10582,
      "rang": 10583,
      "tool": 10584,
      "stitute": 10585,
      "1_": 10586,
      "challen": 10587,
      "existing": 10588,
      "affe": 10589,
      "recei": 10590,
      "Ste": 10591,
      "oto": 10592,
      "axies": 10593,
      "appendix": 10594,
      "notation": 10595,
      "entropy": 10596,
      "dfrac": 10597,
      "physics": 10598,
      "limits_": 10599,
      "encoder": 10600,
      "beam": 10601,
      "ately": 10602,
      "ering": 10603,
      "central": 10604,
      "}{|": 10605,
      "usu": 10606,
      "GC": 10607,
      "concept": 10608,
      "often": 10609,
      "pos": 10610,
      "computed": 10611,
      "written": 10612,
      "contribution": 10613,
      "AA": 10614,
      "ix": 10615,
      "ring": 10616,
      "repor": 10617,
      "vertices": 10618,
      "rences": 10619,
      "print": 10620,
      "leads": 10621,
      "thesis": 10622,
      "Set": 10623,
      "leading": 10624,
      "ka": 10625,
      "Assu": 10626,
      "measured": 10627,
      "word": 10628,
      "'}": 10629,
      "IP": 10630,
      "semb": 10631,
      "derived": 10632,
      "equilib": 10633,
      "zation": 10634,
      "DF": 10635,
      ")-\\": 10636,
      "mem": 10637,
      "achieve": 10638,
      "ano": 10639,
      "quer": 10640,
      "integral": 10641,
      "classes": 10642,
      "alg": 10643,
      "2n": 10644,
      "inf": 10645,
      "body": 10646,
      "diver": 10647,
      "question": 10648,
      "propa": 10649,
      "tree": 10650,
      "asympto": 10651,
      "ISS": 10652,
      "vide": 10653,
      ".}(": 10654,
      "princi": 10655,
      "ually": 10656,
      "parallel": 10657,
      "mole": 10658,
      "among": 10659,
      "len": 10660,
      "ases": 10661,
      "proto": 10662,
      "$\\\\": 10663,
      "Par": 10664,
      "2007": 10665,
      "x_0": 10666,
      "far": 10667,
      "arbit": 10668,
      "compar": 10669,
      "pairs": 10670,
      "evaluate": 10671,
      "give": 10672,
      "ki": 10673,
      "}/": 10674,
      "galaxies": 10675,
      "gau": 10676,
      "contrast": 10677,
      "estab": 10678,
      "2D": 10679,
      "ulti": 10680,
      "MR": 10681,
      "binary": 10682,
      "ird": 10683,
      "gine": 10684,
      "LO": 10685,
      "always": 10686,
      "area": 10687,
      "optical": 10688,
      "{[": 10689,
      "speed": 10690,
      "&=\\": 10691,
      "expression": 10692,
      "setup": 10693,
      "corresponds": 10694,
      "\\\"": 10695,
      "mix": 10696,
      "thermal": 10697,
      "another": 10698,
      "ming": 10699,
      "####": 10700,
      "IT": 10701,
      "NS": 10702,
      "jor": 10703,
      "nm": 10704,
      "hood": 10705,
      "exact": 10706,
      "ato": 10707,
      "_p": 10708,
      "square": 10709,
      "ject": 10710,
      "turn": 10711,
      "symbol": 10712,
      "equilibri": 10713,
      ")+\\": 10714,
      "taint": 10715,
      "mented": 10716,
      "magn": 10717,
      "semi": 10718,
      "individual": 10719,
      "decay": 10720,
      "spaces": 10721,
      "chas": 10722,
      "cry": 10723,
      "onic": 10724,
      "certaint": 10725,
      "choose": 10726,
      "architecture": 10727,
      "supervised": 10728,
      "weights": 10729,
      "mission": 10730,
      "osc": 10731,
      "bias": 10732,
      "micro": 10733,
      "stellar": 10734,
      "Hz": 10735,
      "certainty": 10736,
      "cat": 10737,
      "BH": 10738,
      "phen": 10739,
      "processing": 10740,
      "abbr": 10741,
      "num": 10742,
      "labor": 10743,
      "angular": 10744,
      "temporal": 10745,
      "Hu": 10746,
      "PC": 10747,
      "reduced": 10748,
      "ull": 10749,
      "wit": 10750,
      "partment": 10751,
      "sources": 10752,
      "however": 10753,
      "\\(\\": 10754,
      "}}]{": 10755,
      "FF": 10756,
      "special": 10757,
      "Wang": 10758,
      ":\\": 10759,
      "induced": 10760,
      "stream": 10761,
      "x_2": 10762,
      "xel": 10763,
      "vision": 10764,
      "2006": 10765,
      "tered": 10766,
      "prote": 10767,
      "efficiency": 10768,
      "GPT": 10769,
      "sible": 10770,
      "}^*": 10771,
      "correct": 10772,
      "va": 10773,
      "limited": 10774,
      "Option": 10775,
      "might": 10776,
      "photo": 10777,
      "metrics": 10778,
      "illustra": 10779,
      "lations": 10780,
      "height": 10781,
      "world": 10782,
      "trivial": 10783,
      "sider": 10784,
      "exhib": 10785,
      "transi": 10786,
      "bits": 10787,
      "wedge": 10788,
      "nabla_": 10789,
      "abilities": 10790,
      "objective": 10791,
      "lip": 10792,
      "active": 10793,
      "aries": 10794,
      "representations": 10795,
      "=-": 10796,
      "charge": 10797,
      "procedure": 10798,
      "advan": 10799,
      "ISSN": 10800,
      "bl": 10801,
      ")\\,": 10802,
      "Bar": 10803,
      "~$\\": 10804,
      "diffusion": 10805,
      "Department": 10806,
      "cut": 10807,
      "}}.": 10808,
      "Research": 10809,
      "green": 10810,
      "rel": 10811,
      "forma": 10812,
      "ani": 10813,
      "necessary": 10814,
      "chmark": 10815,
      "ware": 10816,
      "made": 10817,
      "nu_": 10818,
      "oplus": 10819,
      "discrete": 10820,
      "Consider": 10821,
      "stage": 10822,
      "horiz": 10823,
      "gether": 10824,
      "chain": 10825,
      "resi": 10826,
      "policy": 10827,
      "processes": 10828,
      "hole": 10829,
      "resour": 10830,
      "spectra": 10831,
      "New": 10832,
      "observation": 10833,
      "chastic": 10834,
      "deco": 10835,
      "Tra": 10836,
      "textnormal": 10837,
      "finding": 10838,
      "Pr": 10839,
      "tency": 10840,
      "ctors": 10841,
      "track": 10842,
      "quo": 10843,
      "DO": 10844,
      "png": 10845,
      "pher": 10846,
      "devi": 10847,
      "scaling": 10848,
      "epsilon_": 10849,
      "Operator": 10850,
      "expansion": 10851,
      "cellcolor": 10852,
      "selection": 10853,
      "users": 10854,
      "cro": 10855,
      "{(\\": 10856,
      "help": 10857,
      "sci": 10858,
      "mechanism": 10859,
      "threshold": 10860,
      "zing": 10861,
      "xi_": 10862,
      "post": 10863,
      "Intro": 10864,
      "later": 10865,
      "DeclareOption": 10866,
      "journalshort": 10867,
      "journalfull": 10868,
      "doiabbr": 10869,
      "constraint": 10870,
      ",''": 10871,
      "former": 10872,
      "diffic": 10873,
      "AL": 10874,
      "sequently": 10875,
      "atom": 10876,
      "Ra": 10877,
      "errors": 10878,
      "enable": 10879,
      "singular": 10880,
      "Inte": 10881,
      "&=&": 10882,
      "double": 10883,
      "}}^{": 10884,
      "Tech": 10885,
      "lowed": 10886,
      "tin": 10887,
      "application": 10888,
      "presence": 10889,
      "$).": 10890,
      "baseline": 10891,
      "hu": 10892,
      "iterature": 10893,
      "}{(": 10894,
      "relax": 10895,
      "try": 10896,
      "Gener": 10897,
      "Ti": 10898,
      "mask": 10899,
      "success": 10900,
      "equilibrium": 10901,
      "differential": 10902,
      "selected": 10903,
      "AD": 10904,
      "token": 10905,
      "response": 10906,
      "entation": 10907,
      "nonlinear": 10908,
      "gl": 10909,
      "({\\": 10910,
      "Metho": 10911,
      "scenario": 10912,
      "mentioned": 10913,
      "capture": 10914,
      "tuning": 10915,
      "providecommand": 10916,
      "description": 10917,
      "factors": 10918,
      "zz": 10919,
      "labels": 10920,
      "studied": 10921,
      "arily": 10922,
      "denoted": 10923,
      "zes": 10924,
      "yn": 10925,
      "overall": 10926,
      "DeclareMath": 10927,
      "Sub": 10928,
      "uncertainty": 10929,
      "GB": 10930,
      "chi_": 10931,
      "prim": 10932,
      "dark": 10933,
      "reson": 10934,
      "geometry": 10935,
      "Speci": 10936,
      "LLM": 10937,
      "gauge": 10938,
      "OT": 10939,
      "\"\\": 10940,
      "estimated": 10941,
      "subfigure": 10942,
      "rates": 10943,
      "eded": 10944,
      "pped": 10945,
      "ES": 10946,
      "onom": 10947,
      "chosen": 10948,
      "ric": 10949,
      "produce": 10950,
      "floor": 10951,
      "$$\\": 10952,
      "aug": 10953,
      "preser": 10954,
      "curves": 10955,
      "machine": 10956,
      "enough": 10957,
      "termine": 10958,
      "Pre": 10959,
      "{+": 10960,
      "cline": 10961,
      "gs": 10962,
      "scenarios": 10963,
      "Algori": 10964,
      "fla": 10965,
      "exist": 10966,
      "already": 10967,
      "reng": 10968,
      "easi": 10969,
      "account": 10970,
      "public": 10971,
      "family": 10972,
      "PT": 10973,
      "literature": 10974,
      "pixel": 10975,
      "altern": 10976,
      "entangle": 10977,
      "=(": 10978,
      "ults": 10979,
      "comment": 10980,
      ".},": 10981,
      "thin": 10982,
      "ormal": 10983,
      "isms": 10984,
      "bold": 10985,
      "Addition": 10986,
      "novel": 10987,
      "computing": 10988,
      "amoun": 10989,
      "HT": 10990,
      "precise": 10991,
      "SD": 10992,
      "figures": 10993,
      "circu": 10994,
      "amplitude": 10995,
      "================================": 10996,
      "load": 10997,
      "distin": 10998,
      "polynomial": 10999,
      "Ha": 11000,
      "demonstrate": 11001,
      "')": 11002,
      "together": 11003,
      "determine": 11004,
      "||": 11005,
      "mn": 11006,
      "sl": 11007,
      "yields": 11008,
[...]
